{
  "version": "1.0",
  "truncation": null,
  "padding": null,
  "added_tokens": [
    {
      "id": 0,
      "content": "[PAD]",
      "single_word": false,
      "lstrip": false,
      "rstrip": false,
      "normalized": false,
      "special": true
    },
    {
      "id": 1,
      "content": "[UNK]",
      "single_word": false,
      "lstrip": false,
      "rstrip": false,
      "normalized": false,
      "special": true
    },
    {
      "id": 2,
      "content": "[CLS]",
      "single_word": false,
      "lstrip": false,
      "rstrip": false,
      "normalized": false,
      "special": true
    },
    {
      "id": 3,
      "content": "[SEP]",
      "single_word": false,
      "lstrip": false,
      "rstrip": false,
      "normalized": false,
      "special": true
    },
    {
      "id": 4,
      "content": "[MASK]",
      "single_word": false,
      "lstrip": false,
      "rstrip": false,
      "normalized": false,
      "special": true
    }
  ],
  "normalizer": null,
  "pre_tokenizer": {
    "type": "Whitespace"
  },
  "post_processor": null,
  "decoder": null,
  "model": {
    "type": "WordPiece",
    "unk_token": "[UNK]",
    "continuing_subword_prefix": "##",
    "max_input_chars_per_word": 100,
    "vocab": {
      "[PAD]": 0,
      "[UNK]": 1,
      "[CLS]": 2,
      "[SEP]": 3,
      "[MASK]": 4,
      "\u0002": 5,
      "\u0018": 6,
      "\u0019": 7,
      "a": 8,
      "b": 9,
      "c": 10,
      "d": 11,
      "e": 12,
      "f": 13,
      "g": 14,
      "h": 15,
      "i": 16,
      "j": 17,
      "k": 18,
      "l": 19,
      "m": 20,
      "n": 21,
      "o": 22,
      "p": 23,
      "q": 24,
      "r": 25,
      "s": 26,
      "t": 27,
      "u": 28,
      "v": 29,
      "w": 30,
      "x": 31,
      "y": 32,
      "z": 33,
      "": 34,
      "": 35,
      "¡": 36,
      "¢": 37,
      "¥": 38,
      "§": 39,
      "¨": 40,
      "ª": 41,
      "«": 42,
      "¬": 43,
      "­": 44,
      "®": 45,
      "¯": 46,
      "°": 47,
      "±": 48,
      "²": 49,
      "´": 50,
      "¸": 51,
      "»": 52,
      "Å": 53,
      "Æ": 54,
      "Ç": 55,
      "È": 56,
      "É": 57,
      "Ê": 58,
      "Ë": 59,
      "Ì": 60,
      "Í": 61,
      "Î": 62,
      "Ï": 63,
      "Ð": 64,
      "Ñ": 65,
      "Ò": 66,
      "Ó": 67,
      "Ô": 68,
      "Ö": 69,
      "×": 70,
      "Ø": 71,
      "Ù": 72,
      "Ú": 73,
      "Û": 74,
      "Ý": 75,
      "Þ": 76,
      "ß": 77,
      "à": 78,
      "á": 79,
      "â": 80,
      "ã": 81,
      "ä": 82,
      "å": 83,
      "æ": 84,
      "ç": 85,
      "è": 86,
      "é": 87,
      "ê": 88,
      "ë": 89,
      "ì": 90,
      "í": 91,
      "î": 92,
      "ï": 93,
      "ð": 94,
      "ñ": 95,
      "ò": 96,
      "ó": 97,
      "ö": 98,
      "ø": 99,
      "ù": 100,
      "û": 101,
      "ü": 102,
      "ý": 103,
      "ÿ": 104,
      "Ā": 105,
      "ā": 106,
      "č": 107,
      "ī": 108,
      "İ": 109,
      "ı": 110,
      "ł": 111,
      "œ": 112,
      "Ř": 113,
      "Ś": 114,
      "ś": 115,
      "Š": 116,
      "š": 117,
      "ū": 118,
      "ŵ": 119,
      "ǐ": 120,
      "Ǽ": 121,
      "ș": 122,
      "ə": 123,
      "˂": 124,
      "˃": 125,
      "ˆ": 126,
      "́": 127,
      "̈": 128,
      "̊": 129,
      "̒": 130,
      "Α": 131,
      "Η": 132,
      "Κ": 133,
      "Λ": 134,
      "Μ": 135,
      "Ο": 136,
      "Σ": 137,
      "Φ": 138,
      "ά": 139,
      "έ": 140,
      "ή": 141,
      "α": 142,
      "γ": 143,
      "δ": 144,
      "ε": 145,
      "ζ": 146,
      "θ": 147,
      "ι": 148,
      "κ": 149,
      "λ": 150,
      "μ": 151,
      "ν": 152,
      "ξ": 153,
      "ο": 154,
      "π": 155,
      "ρ": 156,
      "ς": 157,
      "υ": 158,
      "ύ": 159,
      "І": 160,
      "А": 161,
      "Д": 162,
      "М": 163,
      "О": 164,
      "У": 165,
      "Х": 166,
      "Я": 167,
      "и": 168,
      "к": 169,
      "л": 170,
      "м": 171,
      "р": 172,
      "с": 173,
      "у": 174,
      "х": 175,
      "я": 176,
      "ѣ": 177,
      "ү": 178,
      "Ա": 179,
      "Գ": 180,
      "Ե": 181,
      "Զ": 182,
      "Ծ": 183,
      "Կ": 184,
      "Հ": 185,
      "Ն": 186,
      "Շ": 187,
      "Վ": 188,
      "Տ": 189,
      "Ց": 190,
      "Փ": 191,
      "Օ": 192,
      "Ֆ": 193,
      "՛": 194,
      "՞": 195,
      "ա": 196,
      "բ": 197,
      "ե": 198,
      "է": 199,
      "թ": 200,
      "ի": 201,
      "լ": 202,
      "յ": 203,
      "շ": 204,
      "ր": 205,
      "ֆ": 206,
      "א": 207,
      "ה": 208,
      "ט": 209,
      "י": 210,
      "ל": 211,
      "ס": 212,
      "ף": 213,
      "פ": 214,
      "צ": 215,
      "،": 216,
      "؛": 217,
      "؟": 218,
      "ء": 219,
      "آ": 220,
      "أ": 221,
      "ؤ": 222,
      "إ": 223,
      "ئ": 224,
      "ا": 225,
      "ب": 226,
      "ة": 227,
      "ت": 228,
      "ث": 229,
      "ج": 230,
      "ح": 231,
      "خ": 232,
      "د": 233,
      "ذ": 234,
      "ر": 235,
      "ز": 236,
      "س": 237,
      "ش": 238,
      "ص": 239,
      "ض": 240,
      "ط": 241,
      "ظ": 242,
      "ع": 243,
      "غ": 244,
      "ـ": 245,
      "ف": 246,
      "ق": 247,
      "ك": 248,
      "ل": 249,
      "م": 250,
      "ن": 251,
      "ه": 252,
      "و": 253,
      "ى": 254,
      "ي": 255,
      "ً": 256,
      "ٌ": 257,
      "ٍ": 258,
      "َ": 259,
      "ُ": 260,
      "ِ": 261,
      "ّ": 262,
      "ْ": 263,
      "ٔ": 264,
      "٢": 265,
      "٣": 266,
      "٦": 267,
      "٪": 268,
      "ٰ": 269,
      "ٹ": 270,
      "پ": 271,
      "چ": 272,
      "ڈ": 273,
      "ڑ": 274,
      "ژ": 275,
      "ک": 276,
      "گ": 277,
      "ں": 278,
      "ھ": 279,
      "ہ": 280,
      "ۂ": 281,
      "ی": 282,
      "ې": 283,
      "ے": 284,
      "۔": 285,
      "۰": 286,
      "۱": 287,
      "۲": 288,
      "۳": 289,
      "۴": 290,
      "۵": 291,
      "۶": 292,
      "۷": 293,
      "۸": 294,
      "۹": 295,
      "܀": 296,
      "ܐ": 297,
      "ܒ": 298,
      "ܘ": 299,
      "ܙ": 300,
      "ܝ": 301,
      "ܟ": 302,
      "ܠ": 303,
      "ܢ": 304,
      "ܣ": 305,
      "ܥ": 306,
      "ܨ": 307,
      "ܩ": 308,
      "ܪ": 309,
      "ܫ": 310,
      "ܬ": 311,
      "ܵ": 312,
      "ܼ": 313,
      "ܿ": 314,
      "ހ": 315,
      "ށ": 316,
      "ޅ": 317,
      "ވ": 318,
      "ޗ": 319,
      "ި": 320,
      "ँ": 321,
      "ं": 322,
      "ः": 323,
      "अ": 324,
      "आ": 325,
      "इ": 326,
      "ई": 327,
      "उ": 328,
      "ऊ": 329,
      "ऎ": 330,
      "ए": 331,
      "ऐ": 332,
      "ओ": 333,
      "औ": 334,
      "क": 335,
      "ख": 336,
      "ग": 337,
      "घ": 338,
      "ङ": 339,
      "च": 340,
      "छ": 341,
      "ज": 342,
      "झ": 343,
      "ञ": 344,
      "ट": 345,
      "ठ": 346,
      "ड": 347,
      "ढ": 348,
      "ण": 349,
      "त": 350,
      "थ": 351,
      "द": 352,
      "ध": 353,
      "न": 354,
      "प": 355,
      "फ": 356,
      "ब": 357,
      "भ": 358,
      "म": 359,
      "य": 360,
      "र": 361,
      "ल": 362,
      "ळ": 363,
      "व": 364,
      "श": 365,
      "ष": 366,
      "स": 367,
      "ह": 368,
      "़": 369,
      "ऽ": 370,
      "ा": 371,
      "ि": 372,
      "ी": 373,
      "ु": 374,
      "ू": 375,
      "ृ": 376,
      "ॄ": 377,
      "ॅ": 378,
      "े": 379,
      "ै": 380,
      "ॉ": 381,
      "ो": 382,
      "ौ": 383,
      "्": 384,
      "ॐ": 385,
      "ॠ": 386,
      "॥": 387,
      "०": 388,
      "१": 389,
      "२": 390,
      "३": 391,
      "४": 392,
      "५": 393,
      "६": 394,
      "७": 395,
      "८": 396,
      "९": 397,
      "ঁ": 398,
      "ং": 399,
      "ঃ": 400,
      "অ": 401,
      "আ": 402,
      "ই": 403,
      "ঈ": 404,
      "উ": 405,
      "ঊ": 406,
      "ঋ": 407,
      "ঌ": 408,
      "এ": 409,
      "ঐ": 410,
      "ও": 411,
      "ঔ": 412,
      "ক": 413,
      "খ": 414,
      "গ": 415,
      "ঘ": 416,
      "ঙ": 417,
      "চ": 418,
      "ছ": 419,
      "জ": 420,
      "ঝ": 421,
      "ঞ": 422,
      "ট": 423,
      "ঠ": 424,
      "ড": 425,
      "ঢ": 426,
      "ণ": 427,
      "ত": 428,
      "থ": 429,
      "দ": 430,
      "ধ": 431,
      "ন": 432,
      "প": 433,
      "ফ": 434,
      "ব": 435,
      "ভ": 436,
      "ম": 437,
      "য": 438,
      "র": 439,
      "঱": 440,
      "ল": 441,
      "঳": 442,
      "শ": 443,
      "ষ": 444,
      "স": 445,
      "হ": 446,
      "়": 447,
      "ঽ": 448,
      "া": 449,
      "ি": 450,
      "ী": 451,
      "ু": 452,
      "ূ": 453,
      "ৃ": 454,
      "ৄ": 455,
      "৅": 456,
      "ে": 457,
      "ৈ": 458,
      "ো": 459,
      "ৌ": 460,
      "্": 461,
      "ৎ": 462,
      "৐": 463,
      "ৗ": 464,
      "৙": 465,
      "৚": 466,
      "৛": 467,
      "ড়": 468,
      "ঢ়": 469,
      "৞": 470,
      "য়": 471,
      "ৠ": 472,
      "ৡ": 473,
      "ৢ": 474,
      "০": 475,
      "১": 476,
      "২": 477,
      "৩": 478,
      "৪": 479,
      "৫": 480,
      "৬": 481,
      "৭": 482,
      "৮": 483,
      "৯": 484,
      "ৰ": 485,
      "ৱ": 486,
      "৲": 487,
      "৴": 488,
      "৵": 489,
      "৶": 490,
      "৷": 491,
      "৸": 492,
      "৹": 493,
      "৺": 494,
      "৻": 495,
      "ৼ": 496,
      "ਅ": 497,
      "ਆ": 498,
      "ਇ": 499,
      "ਕ": 500,
      "ਚ": 501,
      "ਜ": 502,
      "ਵ": 503,
      "ਸ": 504,
      "ਹ": 505,
      "ਿ": 506,
      "ੇ": 507,
      "ੈ": 508,
      "ੰ": 509,
      "ੱ": 510,
      "ર": 511,
      "૨": 512,
      "૭": 513,
      "ଐ": 514,
      "କ": 515,
      "୩": 516,
      "ஃ": 517,
      "ஆ": 518,
      "ட": 519,
      "த": 520,
      "ப": 521,
      "ம": 522,
      "ி": 523,
      "ு": 524,
      "ூ": 525,
      "ே": 526,
      "்": 527,
      "ం": 528,
      "గ": 529,
      "డ": 530,
      "ఢ": 531,
      "న": 532,
      "ప": 533,
      "య": 534,
      "ర": 535,
      "ల": 536,
      "శ": 537,
      "స": 538,
      "ా": 539,
      "ి": 540,
      "ూ": 541,
      "ె": 542,
      "ో": 543,
      "్": 544,
      "ಕ": 545,
      "ಜ": 546,
      "ಲ": 547,
      "ಿ": 548,
      "ು": 549,
      "್": 550,
      "་": 551,
      "།": 552,
      "༠": 553,
      "༡": 554,
      "༢": 555,
      "༣": 556,
      "༦": 557,
      "༧": 558,
      "ཀ": 559,
      "ང": 560,
      "ཆ": 561,
      "ད": 562,
      "པ": 563,
      "བ": 564,
      "ཟ": 565,
      "འ": 566,
      "ཡ": 567,
      "ལ": 568,
      "ས": 569,
      "ི": 570,
      "ྒ": 571,
      "ྟ": 572,
      "ྲ": 573,
      "ა": 574,
      "დ": 575,
      "ე": 576,
      "მ": 577,
      "პ": 578,
      "ჟ": 579,
      "რ": 580,
      "ს": 581,
      "ტ": 582,
      "ხ": 583,
      "ህ": 584,
      "ለ": 585,
      "ሉ": 586,
      "ላ": 587,
      "ል": 588,
      "ሏ": 589,
      "ሕ": 590,
      "ም": 591,
      "ሥ": 592,
      "ረ": 593,
      "ሩ": 594,
      "ሪ": 595,
      "ሯ": 596,
      "ሱ": 597,
      "ሳ": 598,
      "ስ": 599,
      "ሶ": 600,
      "ሻ": 601,
      "ቖ": 602,
      "ቛ": 603,
      "ች": 604,
      "ኃ": 605,
      "ኅ": 606,
      "ኗ": 607,
      "አ": 608,
      "ኢ": 609,
      "ኣ": 610,
      "እ": 611,
      "ኦ": 612,
      "ክ": 613,
      "ኻ": 614,
      "ዒ": 615,
      "ዓ": 616,
      "ዕ": 617,
      "ዖ": 618,
      "ዥ": 619,
      "የ": 620,
      "ዮ": 621,
      "ደ": 622,
      "ዲ": 623,
      "ዳ": 624,
      "ዴ": 625,
      "ጀ": 626,
      "ጂ": 627,
      "ጄ": 628,
      "ገ": 629,
      "ጋ": 630,
      "ጎ": 631,
      "ጓ": 632,
      "ጽ": 633,
      "ፃ": 634,
      "ፅ": 635,
      "ፆ": 636,
      "ፉ": 637,
      "ፖ": 638,
      "፦": 639,
      "፩": 640,
      "፰": 641,
      "፳": 642,
      "፻": 643,
      "Ꭹ": 644,
      "Ꮂ": 645,
      "Ꮝ": 646,
      "Ꮡ": 647,
      "Ꮪ": 648,
      "Ꮼ": 649,
      "ḍ": 650,
      "ḥ": 651,
      "ḷ": 652,
      "ṁ": 653,
      "ṃ": 654,
      "ṅ": 655,
      "Ṇ": 656,
      "ṇ": 657,
      "Ṛ": 658,
      "ṛ": 659,
      "ṝ": 660,
      "ṣ": 661,
      "Ṭ": 662,
      "ṭ": 663,
      "‐": 664,
      "‒": 665,
      "―": 666,
      "‚": 667,
      "‛": 668,
      "„": 669,
      "‟": 670,
      "†": 671,
      "‡": 672,
      "•": 673,
      "․": 674,
      "‥": 675,
      "′": 676,
      "″": 677,
      "‹": 678,
      "›": 679,
      "₀": 680,
      "₹": 681,
      "↑": 682,
      "→": 683,
      "↓": 684,
      "⇒": 685,
      "−": 686,
      "√": 687,
      "∞": 688,
      "∣": 689,
      "⊥": 690,
      "─": 691,
      "△": 692,
      "▶": 693,
      "▽": 694,
      "○": 695,
      "●": 696,
      "♀": 697,
      "♂": 698,
      "♣": 699,
      "✉": 700,
      "✓": 701,
      "✡": 702,
      "❖": 703,
      "⤒": 704,
      "⤘": 705,
      "、": 706,
      "。": 707,
      "々": 708,
      "〈": 709,
      "〉": 710,
      "》": 711,
      "」": 712,
      "』": 713,
      "〜": 714,
      "く": 715,
      "ぐ": 716,
      "こ": 717,
      "す": 718,
      "せ": 719,
      "て": 720,
      "と": 721,
      "の": 722,
      "ふ": 723,
      "や": 724,
      "り": 725,
      "る": 726,
      "ろ": 727,
      "を": 728,
      "ん": 729,
      "ァ": 730,
      "ィ": 731,
      "イ": 732,
      "エ": 733,
      "ク": 734,
      "グ": 735,
      "ケ": 736,
      "シ": 737,
      "ジ": 738,
      "ス": 739,
      "タ": 740,
      "ッ": 741,
      "ノ": 742,
      "ハ": 743,
      "バ": 744,
      "パ": 745,
      "フ": 746,
      "ヘ": 747,
      "ベ": 748,
      "ペ": 749,
      "マ": 750,
      "ミ": 751,
      "ム": 752,
      "メ": 753,
      "ャ": 754,
      "ュ": 755,
      "ル": 756,
      "ン": 757,
      "・": 758,
      "ー": 759,
      "一": 760,
      "之": 761,
      "今": 762,
      "仏": 763,
      "入": 764,
      "冷": 765,
      "化": 766,
      "卒": 767,
      "可": 768,
      "呕": 769,
      "唐": 770,
      "夺": 771,
      "娜": 772,
      "少": 773,
      "心": 774,
      "必": 775,
      "忆": 776,
      "晶": 777,
      "真": 778,
      "竜": 779,
      "米": 780,
      "臀": 781,
      "自": 782,
      "萬": 783,
      "轟": 784,
      "高": 785,
      "鸭": 786,
      "鼎": 787,
      "으": 788,
      "이": 789,
      "": 790,
      "": 791,
      "": 792,
      "": 793,
      "": 794,
      "﷽": 795,
      "︎": 796,
      "﻿": 797,
      "�": 798,
      "😀": 799,
      "😕": 800,
      "😯": 801,
      "🙂": 802,
      "##া": 803,
      "##ব": 804,
      "##্": 805,
      "##দ": 806,
      "##ন": 807,
      "##র": 808,
      "##জ": 809,
      "##য": 810,
      "##ে": 811,
      "##গ": 812,
      "##ৌ": 813,
      "##ড": 814,
      "##প": 815,
      "##ী": 816,
      "##ক": 817,
      "##ি": 818,
      "##থ": 819,
      "##ম": 820,
      "##ণ": 821,
      "##ূ": 822,
      "##ো": 823,
      "##ষ": 824,
      "##ত": 825,
      "##হ": 826,
      "##ল": 827,
      "##ট": 828,
      "##ই": 829,
      "##ু": 830,
      "##ৎ": 831,
      "##স": 832,
      "##ঃ": 833,
      "##ৃ": 834,
      "##চ": 835,
      "##ও": 836,
      "##়": 837,
      "##ছ": 838,
      "##ৰ": 839,
      "##ঞ": 840,
      "##ধ": 841,
      "##ঙ": 842,
      "##ভ": 843,
      "##ং": 844,
      "##শ": 845,
      "##৪": 846,
      "##১": 847,
      "##২": 848,
      "##০": 849,
      "##য়": 850,
      "##ঠ": 851,
      "##ঘ": 852,
      "##ৈ": 853,
      "##a": 854,
      "##r": 855,
      "##m": 856,
      "##b": 857,
      "##h": 858,
      "##i": 859,
      "##ل": 860,
      "##ط": 861,
      "##ی": 862,
      "##৮": 863,
      "##৯": 864,
      "##ঢ": 865,
      "##৩": 866,
      "##৭": 867,
      "##ঁ": 868,
      "##ফ": 869,
      "##p": 870,
      "##o": 871,
      "##v": 872,
      "##s": 873,
      "##t": 874,
      "##n": 875,
      "##َ": 876,
      "##ح": 877,
      "##ْ": 878,
      "##س": 879,
      "##ب": 880,
      "##ُ": 881,
      "##ঝ": 882,
      "##খ": 883,
      "##ঽ": 884,
      "##u": 885,
      "##ض": 886,
      "##ر": 887,
      "##ড়": 888,
      "##ṛ": 889,
      "##d": 890,
      "##e": 891,
      "##ु": 892,
      "##र": 893,
      "##थ": 894,
      "##े": 895,
      "##भ": 896,
      "##ि": 897,
      "##न": 898,
      "##्": 899,
      "##द": 900,
      "##ा": 901,
      "##l": 902,
      "##q": 903,
      "##৫": 904,
      "##এ": 905,
      "##৬": 906,
      "##ṣ": 907,
      "##ṇ": 908,
      "##ṃ": 909,
      "##ِ": 910,
      "##ي": 911,
      "##ن": 912,
      "##g": 913,
      "##y": 914,
      "##j": 915,
      "##ś": 916,
      "##ā": 917,
      "##و": 918,
      "##ً": 919,
      "##ا": 920,
      "##ī": 921,
      "##ز": 922,
      "##ع": 923,
      "##د": 924,
      "##ك": 925,
      "##ث": 926,
      "##م": 927,
      "##c": 928,
      "##म": 929,
      "##त": 930,
      "##k": 931,
      "##ḥ": 932,
      "##ه": 933,
      "##ّ": 934,
      "##f": 935,
      "##छ": 936,
      "##य": 937,
      "##ू": 938,
      "##উ": 939,
      "##ذ": 940,
      "##क": 941,
      "##व": 942,
      "##ौ": 943,
      "##श": 944,
      "##z": 945,
      "##ت": 946,
      "##ة": 947,
      "##আ": 948,
      "##ळ": 949,
      "##ो": 950,
      "##أ": 951,
      "##ज": 952,
      "##ञ": 953,
      "##ं": 954,
      "##অ": 955,
      "##ū": 956,
      "##ध": 957,
      "##ष": 958,
      "##प": 959,
      "##ف": 960,
      "##ظ": 961,
      "##ى": 962,
      "##स": 963,
      "##ٌ": 964,
      "##ग": 965,
      "##ट": 966,
      "##w": 967,
      "##ٍ": 968,
      "##ल": 969,
      "##ش": 970,
      "##ق": 971,
      "##ঋ": 972,
      "##إ": 973,
      "##ः": 974,
      "##ج": 975,
      "##ء": 976,
      "##ह": 977,
      "##غ": 978,
      "##آ": 979,
      "##ئ": 980,
      "##ৠ": 981,
      "##ঢ়": 982,
      "##ी": 983,
      "##ण": 984,
      "##च": 985,
      "##ख": 986,
      "##ṭ": 987,
      "##ঈ": 988,
      "##æ": 989,
      "##Ô": 990,
      "##Ú": 991,
      "##گ": 992,
      "##ঊ": 993,
      "##خ": 994,
      "##é": 995,
      "##ṅ": 996,
      "##ৗ": 997,
      "##ص": 998,
      "##ठ": 999,
      "##ब": 1000,
      "##პ": 1001,
      "##ა": 1002,
      "##Ե": 1003,
      "##ñ": 1004,
      "##à": 1005,
      "##५": 1006,
      "##৷": 1007,
      "##ৼ": 1008,
      "##x": 1009,
      "##ৄ": 1010,
      "##ई": 1011,
      "##ৱ": 1012,
      "##â": 1013,
      "##ḷ": 1014,
      "##ٔ": 1015,
      "##ै": 1016,
      "##ঐ": 1017,
      "##۹": 1018,
      "##۴": 1019,
      "##î": 1020,
      "##û": 1021,
      "##ک": 1022,
      "##घ": 1023,
      "##Σ": 1024,
      "##Տ": 1025,
      "##ঔ": 1026,
      "##ৢ": 1027,
      "##ॉ": 1028,
      "##ؤ": 1029,
      "##ø": 1030,
      "##ङ": 1031,
      "##א": 1032,
      "##צ": 1033,
      "##ף": 1034,
      "##پ": 1035,
      "##Ֆ": 1036,
      "##γ": 1037,
      "##ß": 1038,
      "##Կ": 1039,
      "##Հ": 1040,
      "##ـ": 1041,
      "##š": 1042,
      "##झ": 1043,
      "##ö": 1044,
      "##∣": 1045,
      "##۱": 1046,
      "##۶": 1047,
      "##ھ": 1048,
      "##్": 1049,
      "##య": 1050,
      "##ా": 1051,
      "##œ": 1052,
      "##Ñ": 1053,
      "##እ": 1054,
      "##ቛ": 1055,
      "##פ": 1056,
      "##ப": 1057,
      "##ி": 1058,
      "##்": 1059,
      "##ட": 1060,
      "##ਿ": 1061,
      "##ს": 1062,
      "##ტ": 1063,
      "##Š": 1064,
      "##ṝ": 1065,
      "##ऎ": 1066,
      "##夺": 1067,
      "##忆": 1068,
      "##可": 1069,
      "##Þ": 1070,
      "##†": 1071,
      "##چ": 1072,
      "##ہ": 1073,
      "##ॄ": 1074,
      "##ऊ": 1075,
      "##ས": 1076,
      "##९": 1077,
      "##ι": 1078,
      "##δ": 1079,
      "##ο": 1080,
      "##ड": 1081,
      "##།": 1082,
      "##ク": 1083,
      "##Ա": 1084,
      "##ܠ": 1085,
      "##ä": 1086,
      "##उ": 1087,
      "##ÿ": 1088,
      "##Օ": 1089,
      "##१": 1090,
      "##३": 1091,
      "##á": 1092,
      "##۲": 1093,
      "##Ö": 1094,
      "##י": 1095,
      "##や": 1096,
      "##Գ": 1097,
      "##ٰ": 1098,
      "##ሻ": 1099,
      "##۔": 1100,
      "##ॐ": 1101,
      "##ê": 1102,
      "##७": 1103,
      "##ん": 1104,
      "##ふ": 1105,
      "##ィ": 1106,
      "##ላ": 1107,
      "##۰": 1108,
      "##Ç": 1109,
      "##༧": 1110,
      "##り": 1111,
      "##ぐ": 1112,
      "##ס": 1113,
      "##ి": 1114,
      "##స": 1115,
      "##ḍ": 1116,
      "##ṁ": 1117,
      "##イ": 1118,
      "##エ": 1119,
      "##٦": 1120,
      "##自": 1121,
      "##Փ": 1122,
      "##फ": 1123,
      "##ढ": 1124,
      "##ե": 1125,
      "##å": 1126,
      "##Å": 1127,
      "##ì": 1128,
      "##ژ": 1129,
      "##í": 1130,
      "##ã": 1131,
      "##ए": 1132,
      "##ܩ": 1133,
      "##ܝ": 1134,
      "##ܢ": 1135,
      "##ܵ": 1136,
      "##ۂ": 1137,
      "##॥": 1138,
      "##०": 1139,
      "##ਕ": 1140,
      "##μ": 1141,
      "##ó": 1142,
      "##ν": 1143,
      "##Φ": 1144,
      "##υ": 1145,
      "##Ï": 1146,
      "##ਆ": 1147,
      "##ܼ": 1148,
      "##ܿ": 1149,
      "##Û": 1150,
      "##•": 1151,
      "##ې": 1152,
      "##ྒ": 1153,
      "##ྲ": 1154,
      "##৶": 1155,
      "##ዖ": 1156,
      "##ृ": 1157,
      "##۷": 1158,
      "##ጓ": 1159,
      "##़": 1160,
      "##ሯ": 1161,
      "##ǐ": 1162,
      "##༣": 1163,
      "##ዕ": 1164,
      "##ህ": 1165,
      "##ኃ": 1166,
      "##ྟ": 1167,
      "##グ": 1168,
      "##ン": 1169,
      "##ँ": 1170,
      "##ı": 1171,
      "##ో": 1172,
      "##ప": 1173,
      "##గ": 1174,
      "##ŵ": 1175,
      "##ü": 1176,
      "##ł": 1177,
      "##ș": 1178,
      "##高": 1179,
      "##ה": 1180,
      "##ੈ": 1181,
      "##इ": 1182,
      "##č": 1183,
      "##Ì": 1184,
      "##と": 1185,
      "##ੱ": 1186,
      "##ਸ": 1187,
      "##್": 1188,
      "##৹": 1189,
      "##─": 1190,
      "##ր": 1191,
      "##θ": 1192,
      "##ܒ": 1193,
      "##̈": 1194,
      "##ܐ": 1195,
      "##〈": 1196,
      "##Ն": 1197,
      "##ި": 1198,
      "##Ë": 1199,
      "##۵": 1200,
      "##Ù": 1201,
      "##ለ": 1202,
      "##؟": 1203,
      "##ሪ": 1204,
      "##Ý": 1205,
      "##ሥ": 1206,
      "##ི": 1207,
      "##ర": 1208,
      "##ï": 1209,
      "##૭": 1210,
      "##მ": 1211,
      "##৵": 1212,
      "##ኻ": 1213,
      "##Ò": 1214,
      "##յ": 1215,
      "##ー": 1216,
      "##ੰ": 1217,
      "##ッ": 1218,
      "##ڑ": 1219,
      "##è": 1220,
      "##ξ": 1221,
      "##२": 1222,
      "##»": 1223,
      "##ூ": 1224,
      "##・": 1225,
      "##Ꭹ": 1226,
      "##ு": 1227,
      "##լ": 1228,
      "##ç": 1229,
      "##८": 1230,
      "##、": 1231,
      "##ペ": 1232,
      "##タ": 1233,
      "##È": 1234,
      "##ں": 1235,
      "##É": 1236,
      "##ం": 1237,
      "##ڈ": 1238,
      "##Վ": 1239,
      "##ጋ": 1240,
      "##ジ": 1241,
      "##ノ": 1242,
      "##フ": 1243,
      "##ዲ": 1244,
      "##ხ": 1245,
      "##अ": 1246,
      "##ঌ": 1247,
      "##。": 1248,
      "##ή": 1249,
      "##ቖ": 1250,
      "##ò": 1251,
      "##ベ": 1252,
      "##ኗ": 1253,
      "##ጄ": 1254,
      "##ֆ": 1255,
      "##ٹ": 1256,
      "##Î": 1257,
      "##Ð": 1258,
      "##৴": 1259,
      "##ュ": 1260,
      "##ε": 1261,
      "##ρ": 1262,
      "##○": 1263,
      "##一": 1264,
      "##ァ": 1265,
      "##ਚ": 1266,
      "##♣": 1267,
      "##す": 1268,
      "##今": 1269,
      "##ý": 1270,
      "##¢": 1271,
      "##ె": 1272,
      "##४": 1273,
      "##ዓ": 1274,
      "##Í": 1275,
      "##々": 1276,
      "##༦": 1277,
      "##༠": 1278,
      "##ऽ": 1279,
      "##ረ": 1280,
      "##冷": 1281,
      "##ス": 1282,
      "##ë": 1283,
      "##ৡ": 1284,
      "##ѣ": 1285,
      "##″": 1286,
      "##": 1287,
      "##ॅ": 1288,
      "##­": 1289,
      "##›": 1290,
      "##ూ": 1291,
      "##డ": 1292,
      "##ܬ": 1293,
      "##ט": 1294,
      "##ל": 1295,
      "##ù": 1296,
      "##¬": 1297,
      "##ே": 1298,
      "##ე": 1299,
      "##ά": 1300,
      "##έ": 1301,
      "##ς": 1302,
      "##ಲ": 1303,
      "##ಿ": 1304,
      "##ಕ": 1305,
      "##ಜ": 1306,
      "##ು": 1307,
      "##ム": 1308,
      "##Я": 1309,
      "##α": 1310,
      "##ፉ": 1311,
      "##«": 1312,
      "##ے": 1313,
      "##་": 1314,
      "##న": 1315,
      "##ার": 1316,
      "##য়": 1317,
      "##ের": 1318,
      "##্য": 1319,
      "##্র": 1320,
      "##ান": 1321,
      "কর": 1322,
      "##তে": 1323,
      "##লে": 1324,
      "##কে": 1325,
      "##্ত": 1326,
      "##ছে": 1327,
      "##য়ে": 1328,
      "না": 1329,
      "##িন": 1330,
      "আম": 1331,
      "##টা": 1332,
      "##বে": 1333,
      "##ড়": 1334,
      "এক": 1335,
      "##্ব": 1336,
      "##াল": 1337,
      "তা": 1338,
      "##িল": 1339,
      "##াম": 1340,
      "##ির": 1341,
      "বা": 1342,
      "করে": 1343,
      "দে": 1344,
      "সে": 1345,
      "প্র": 1346,
      "বল": 1347,
      "##ন্": 1348,
      "##িয়ে": 1349,
      "##িক": 1350,
      "##নে": 1351,
      "##ুর": 1352,
      "##ায়": 1353,
      "##িত": 1354,
      "##াক": 1355,
      "##িয়": 1356,
      "##দের": 1357,
      "##াস": 1358,
      "##াত": 1359,
      "যে": 1360,
      "##র্": 1361,
      "তার": 1362,
      "##াই": 1363,
      "##রে": 1364,
      "##াব": 1365,
      "তো": 1366,
      "বি": 1367,
      "কি": 1368,
      "##থা": 1369,
      "##্ষ": 1370,
      "কা": 1371,
      "##লেন": 1372,
      "##ুল": 1373,
      "আর": 1374,
      "দেখ": 1375,
      "##রা": 1376,
      "##্যা": 1377,
      "##টি": 1378,
      "##ঙ্": 1379,
      "সম": 1380,
      "নি": 1381,
      "##েল": 1382,
      "##বার": 1383,
      "##ষ্": 1384,
      "##সে": 1385,
      "কো": 1386,
      "আমি": 1387,
      "##নি": 1388,
      "পা": 1389,
      "##খন": 1390,
      "যা": 1391,
      "##চ্": 1392,
      "কে": 1393,
      "##ুম": 1394,
      "এই": 1395,
      "##গে": 1396,
      "##না": 1397,
      "পর": 1398,
      "##ছি": 1399,
      "পার": 1400,
      "মা": 1401,
      "আমার": 1402,
      "##স্": 1403,
      "##তি": 1404,
      "##ন্য": 1405,
      "##ুক": 1406,
      "##েকে": 1407,
      "দি": 1408,
      "##য়া": 1409,
      "##াকে": 1410,
      "##ক্ষ": 1411,
      "##েই": 1412,
      "রা": 1413,
      "##িয়ে": 1414,
      "##য়ে": 1415,
      "##্তু": 1416,
      "##ীর": 1417,
      "##ানে": 1418,
      "##ন্দ": 1419,
      "##ছিল": 1420,
      "কিন": 1421,
      "##ুন": 1422,
      "থেকে": 1423,
      "##লা": 1424,
      "মু": 1425,
      "সা": 1426,
      "##োক": 1427,
      "কথা": 1428,
      "দু": 1429,
      "##দ্": 1430,
      "একটা": 1431,
      "##িয়া": 1432,
      "বে": 1433,
      "বলল": 1434,
      "হয়ে": 1435,
      "কোন": 1436,
      "কিন্তু": 1437,
      "##পর": 1438,
      "বলে": 1439,
      "##িতে": 1440,
      "##াঁ": 1441,
      "##ন্ত": 1442,
      "আপ": 1443,
      "তোম": 1444,
      "##দি": 1445,
      "আছে": 1446,
      "##িনি": 1447,
      "##্ম": 1448,
      "##াগ": 1449,
      "##কার": 1450,
      "##্প": 1451,
      "##ায়": 1452,
      "কিছ": 1453,
      "##জন": 1454,
      "##ারা": 1455,
      "##টে": 1456,
      "##স্ত": 1457,
      "সব": 1458,
      "##বা": 1459,
      "##াদের": 1460,
      "##মন": 1461,
      "আস": 1462,
      "কিছু": 1463,
      "##লো": 1464,
      "##ধ্য": 1465,
      "##তো": 1466,
      "সঙ্": 1467,
      "##বং": 1468,
      "উঠ": 1469,
      "##চ্ছে": 1470,
      "##খে": 1471,
      "##ুষ": 1472,
      "মে": 1473,
      "মনে": 1474,
      "এবং": 1475,
      "##ুব": 1476,
      "হই": 1477,
      "##য়া": 1478,
      "##নের": 1479,
      "##ার্": 1480,
      "করতে": 1481,
      "সেই": 1482,
      "জান": 1483,
      "কী": 1484,
      "হবে": 1485,
      "##ন্ধ": 1486,
      "সঙ্গে": 1487,
      "জন্য": 1488,
      "##কা": 1489,
      "##দে": 1490,
      "থাক": 1491,
      "চে": 1492,
      "বু": 1493,
      "হয়": 1494,
      "অব": 1495,
      "##হা": 1496,
      "##দ্ধ": 1497,
      "##ড়ে": 1498,
      "শু": 1499,
      "স্ব": 1500,
      "##্চ": 1501,
      "##ছেন": 1502,
      "##ত্য": 1503,
      "##মে": 1504,
      "গে": 1505,
      "সু": 1506,
      "##শে": 1507,
      "গেল": 1508,
      "##জ্": 1509,
      "মান": 1510,
      "তুম": 1511,
      "##তা": 1512,
      "##ণ্": 1513,
      "তুমি": 1514,
      "দিয়ে": 1515,
      "##ক্ত": 1516,
      "এসে": 1517,
      "ছিল": 1518,
      "নেই": 1519,
      "##াবে": 1520,
      "##ষ্ট": 1521,
      "##োর": 1522,
      "##হার": 1523,
      "##দিন": 1524,
      "মধ্য": 1525,
      "##ান্": 1526,
      "##াতে": 1527,
      "ভাল": 1528,
      "##িস": 1529,
      "তিনি": 1530,
      "নিজ": 1531,
      "##ত্ত": 1532,
      "##নার": 1533,
      "এখন": 1534,
      "##ঙ্গ": 1535,
      "##াপ": 1536,
      "##বি": 1537,
      "দিকে": 1538,
      "লোক": 1539,
      "আমাদের": 1540,
      "পে": 1541,
      "##শ্ব": 1542,
      "তাঁ": 1543,
      "তোমার": 1544,
      "##ত্র": 1545,
      "##খানে": 1546,
      "স্": 1547,
      "নিয়ে": 1548,
      "##মা": 1549,
      "ব্য": 1550,
      "গা": 1551,
      "কার": 1552,
      "##টার": 1553,
      "##ূর": 1554,
      "চো": 1555,
      "##াও": 1556,
      "##ড়ি": 1557,
      "##জা": 1558,
      "##দা": 1559,
      "হয়": 1560,
      "হয়ে": 1561,
      "##রের": 1562,
      "##গুল": 1563,
      "অন": 1564,
      "তখন": 1565,
      "কাছে": 1566,
      "উপ": 1567,
      "##েলে": 1568,
      "##টু": 1569,
      "##ঁচ": 1570,
      "মধ্যে": 1571,
      "##জ্ঞ": 1572,
      "##ড়া": 1573,
      "অনে": 1574,
      "পারে": 1575,
      "নে": 1576,
      "মানুষ": 1577,
      "বো": 1578,
      "##ান্ত": 1579,
      "##াত্র": 1580,
      "##োগ": 1581,
      "##সা": 1582,
      "##্ন": 1583,
      "করি": 1584,
      "রে": 1585,
      "লাগ": 1586,
      "যেন": 1587,
      "পরি": 1588,
      "th": 1589,
      "##ীব": 1590,
      "##জে": 1591,
      "আমরা": 1592,
      "##্ল": 1593,
      "##শি": 1594,
      "হাত": 1595,
      "##ণ্ড": 1596,
      "অনেক": 1597,
      "কেন": 1598,
      "এর": 1599,
      "দাঁ": 1600,
      "##ারে": 1601,
      "যদি": 1602,
      "নাম": 1603,
      "বুঝ": 1604,
      "বললেন": 1605,
      "হল": 1606,
      "ভে": 1607,
      "রাখ": 1608,
      "সর": 1609,
      "মুখ": 1610,
      "সাম": 1611,
      "সং": 1612,
      "##িশ": 1613,
      "##ুলে": 1614,
      "##থে": 1615,
      "##িম": 1616,
      "করা": 1617,
      "তাদের": 1618,
      "আজ": 1619,
      "দেখে": 1620,
      "গো": 1621,
      "##ূপ": 1622,
      "একটু": 1623,
      "ভাব": 1624,
      "ঠিক": 1625,
      "##ানা": 1626,
      "##ভাবে": 1627,
      "হে": 1628,
      "##শ্চ": 1629,
      "##্ভ": 1630,
      "##য়ার": 1631,
      "কোনো": 1632,
      "##কি": 1633,
      "মতো": 1634,
      "খুব": 1635,
      "নির": 1636,
      "##্দ": 1637,
      "##হে": 1638,
      "তাকে": 1639,
      "ব্যা": 1640,
      "আবার": 1641,
      "হাস": 1642,
      "চলে": 1643,
      "শে": 1644,
      "##ৃত": 1645,
      "কাজ": 1646,
      "##িব": 1647,
      "আমাকে": 1648,
      "##র্ণ": 1649,
      "##লাম": 1650,
      "##স্থ": 1651,
      "প্রতি": 1652,
      "##চ্ছ": 1653,
      "এমন": 1654,
      "##াদ": 1655,
      "বস": 1656,
      "দিন": 1657,
      "থাকে": 1658,
      "তাই": 1659,
      "যায়": 1660,
      "পড়": 1661,
      "##রি": 1662,
      "##বেন": 1663,
      "the": 1664,
      "##োট": 1665,
      "লা": 1666,
      "ফির": 1667,
      "##ুঁ": 1668,
      "##াকা": 1669,
      "আপনি": 1670,
      "##দ্র": 1671,
      "এত": 1672,
      "একটি": 1673,
      "তারা": 1674,
      "ক্ষ": 1675,
      "##লের": 1676,
      "##মান": 1677,
      "মি": 1678,
      "অন্য": 1679,
      "##ৃষ্": 1680,
      "পুর": 1681,
      "তবে": 1682,
      "দর": 1683,
      "##ুপ": 1684,
      "##বর": 1685,
      "আগে": 1686,
      "তারপর": 1687,
      "বসে": 1688,
      "গেছে": 1689,
      "চোখ": 1690,
      "##কম": 1691,
      "জীব": 1692,
      "মন": 1693,
      "##ীন": 1694,
      "বের": 1695,
      "নয়": 1696,
      "পড়": 1697,
      "দেখা": 1698,
      "##ুত": 1699,
      "অভ": 1700,
      "অস": 1701,
      "##াজ": 1702,
      "##ধু": 1703,
      "কেউ": 1704,
      "ভালো": 1705,
      "গিয়ে": 1706,
      "##ছিলেন": 1707,
      "সক": 1708,
      "তাহ": 1709,
      "##্রী": 1710,
      "##তেই": 1711,
      "চল": 1712,
      "লে": 1713,
      "##িয়া": 1714,
      "##ওয়া": 1715,
      "অপ": 1716,
      "শেষ": 1717,
      "##শ্য": 1718,
      "দিল": 1719,
      "সি": 1720,
      "দ্ব": 1721,
      "আপনার": 1722,
      "##্রে": 1723,
      "সহ": 1724,
      "আল": 1725,
      "##চে": 1726,
      "যখন": 1727,
      "হলে": 1728,
      "##ড়িয়ে": 1729,
      "##গুলো": 1730,
      "উঠে": 1731,
      "##ানের": 1732,
      "পড়ে": 1733,
      "মত": 1734,
      "ওর": 1735,
      "##ণে": 1736,
      "##িপ": 1737,
      "দেব": 1738,
      "অর্": 1739,
      "নিজের": 1740,
      "কাল": 1741,
      "মহ": 1742,
      "##াহ": 1743,
      "দিয়ে": 1744,
      "রাজ": 1745,
      "হচ্ছে": 1746,
      "##খান": 1747,
      "বড়": 1748,
      "##র্ম": 1749,
      "তাঁর": 1750,
      "করল": 1751,
      "সত্য": 1752,
      "##ঞ্চ": 1753,
      "খে": 1754,
      "ধরে": 1755,
      "সম্প": 1756,
      "চাই": 1757,
      "ছা": 1758,
      "সময়": 1759,
      "##ল্প": 1760,
      "##ুরু": 1761,
      "##ানো": 1762,
      "##শের": 1763,
      "বন্ধ": 1764,
      "একজন": 1765,
      "করিয়া": 1766,
      "##বাব": 1767,
      "##ীত": 1768,
      "আন": 1769,
      "ডাক": 1770,
      "যাবে": 1771,
      "পি": 1772,
      "##ুক্ত": 1773,
      "##রণ": 1774,
      "##চার": 1775,
      "##্রহ": 1776,
      "কত": 1777,
      "##ন্দ্র": 1778,
      "তাক": 1779,
      "বলতে": 1780,
      "ব্যাপ": 1781,
      "দিতে": 1782,
      "পরে": 1783,
      "##বু": 1784,
      "বার": 1785,
      "##ড়ি": 1786,
      "##ঞ্": 1787,
      "বেশ": 1788,
      "##পা": 1789,
      "##ঠা": 1790,
      "জন্যে": 1791,
      "মাঝ": 1792,
      "নাই": 1793,
      "##্লা": 1794,
      "ধর": 1795,
      "ছেলে": 1796,
      "##ুণ": 1797,
      "হাতে": 1798,
      "জি": 1799,
      "শুধু": 1800,
      "সো": 1801,
      "ভা": 1802,
      "##াবার": 1803,
      "হয়েছে": 1804,
      "নিয়ে": 1805,
      "##ুট": 1806,
      "কোনও": 1807,
      "মাথা": 1808,
      "হতে": 1809,
      "মো": 1810,
      "প্রথ": 1811,
      "##য়ের": 1812,
      "##শ্বাস": 1813,
      "তে": 1814,
      "কখন": 1815,
      "যায়": 1816,
      "এল": 1817,
      "করার": 1818,
      "##কের": 1819,
      "দেখতে": 1820,
      "##াস্ত": 1821,
      "##ারি": 1822,
      "এটা": 1823,
      "##টের": 1824,
      "##াণ": 1825,
      "আগ": 1826,
      "শো": 1827,
      "##ম্ব": 1828,
      "যেতে": 1829,
      "##ড়া": 1830,
      "তিন": 1831,
      "##ুদ্ধ": 1832,
      "##িলেন": 1833,
      "##থায়": 1834,
      "##ষ্ঠ": 1835,
      "করেন": 1836,
      "##দার": 1837,
      "##er": 1838,
      "ছোট": 1839,
      "মেয়ে": 1840,
      "##সব": 1841,
      "শব": 1842,
      "##োঁ": 1843,
      "##টো": 1844,
      "এখানে": 1845,
      "চি": 1846,
      "অনু": 1847,
      "##ালা": 1848,
      "বুক": 1849,
      "##প্র": 1850,
      "কারণ": 1851,
      "শুন": 1852,
      "##ন্ত্র": 1853,
      "##ণা": 1854,
      "##ারী": 1855,
      "##লেই": 1856,
      "বাড়": 1857,
      "আহ": 1858,
      "উপর": 1859,
      "ঘরে": 1860,
      "##স্য": 1861,
      "কম": 1862,
      "##ুরে": 1863,
      "ফেল": 1864,
      "তাহার": 1865,
      "##শা": 1866,
      "##্রম": 1867,
      "ওই": 1868,
      "নয়": 1869,
      "##ৃষ্টি": 1870,
      "##তার": 1871,
      "সেটা": 1872,
      "##ষ্টা": 1873,
      "সাথে": 1874,
      "##াতা": 1875,
      "##ীয়": 1876,
      "সর্ব": 1877,
      "##লি": 1878,
      "কু": 1879,
      "করছে": 1880,
      "##্যে": 1881,
      "বির": 1882,
      "##চিত": 1883,
      "বিষ": 1884,
      "##ক্তি": 1885,
      "করিতে": 1886,
      "শর": 1887,
      "##স্থা": 1888,
      "অত": 1889,
      "ফিরে": 1890,
      "ওপর": 1891,
      "আলো": 1892,
      "সামনে": 1893,
      "চার": 1894,
      "ব্যব": 1895,
      "চিন": 1896,
      "##ুই": 1897,
      "##ানি": 1898,
      "##্যন্ত": 1899,
      "বেশি": 1900,
      "স্ত": 1901,
      "##in": 1902,
      "##ঠে": 1903,
      "##পে": 1904,
      "##ারের": 1905,
      "##at": 1906,
      "##ন্ন": 1907,
      "বাবা": 1908,
      "##ছিলাম": 1909,
      "##দী": 1910,
      "জানে": 1911,
      "শুরু": 1912,
      "কল": 1913,
      "লি": 1914,
      "কাঁ": 1915,
      "হলো": 1916,
      "##জি": 1917,
      "##িতা": 1918,
      "##েরে": 1919,
      "##শেষ": 1920,
      "##্ট": 1921,
      "যত": 1922,
      "##ড়ে": 1923,
      "##বল": 1924,
      "প্রথম": 1925,
      "হইতে": 1926,
      "রেখে": 1927,
      "##ক্ষা": 1928,
      "জন": 1929,
      "আত": 1930,
      "অধ": 1931,
      "##মি": 1932,
      "দুর": 1933,
      "হইয়া": 1934,
      "##গা": 1935,
      "নী": 1936,
      "পাল": 1937,
      "ওরা": 1938,
      "##দ্য": 1939,
      "##্রি": 1940,
      "##সি": 1941,
      "ঘুম": 1942,
      "রো": 1943,
      "##ঠাৎ": 1944,
      "বাই": 1945,
      "হঠাৎ": 1946,
      "বর": 1947,
      "##ক্ষণ": 1948,
      "##দিকে": 1949,
      "আসে": 1950,
      "একবার": 1951,
      "##সের": 1952,
      "##ঞ্জ": 1953,
      "করবে": 1954,
      "উঠল": 1955,
      "##্ৰ": 1956,
      "বড়": 1957,
      "জে": 1958,
      "##ূল": 1959,
      "যাচ্ছে": 1960,
      "##nd": 1961,
      "তোমাকে": 1962,
      "##োধ": 1963,
      "যাও": 1964,
      "##্তা": 1965,
      "মৃ": 1966,
      "বছ": 1967,
      "তাহলে": 1968,
      "##বাস": 1969,
      "প্রশ": 1970,
      "##ূর্ণ": 1971,
      "কোথা": 1972,
      "স্থ": 1973,
      "##ূত": 1974,
      "হ্যা": 1975,
      "এগ": 1976,
      "চা": 1977,
      "##কাল": 1978,
      "শুনে": 1979,
      "বাঁ": 1980,
      "দুই": 1981,
      "টে": 1982,
      "মুখে": 1983,
      "##ধা": 1984,
      "তুলে": 1985,
      "পর্যন্ত": 1986,
      "বোধ": 1987,
      "ব্যাপার": 1988,
      "##র্শ": 1989,
      "চেষ্টা": 1990,
      "##খা": 1991,
      "##য়ের": 1992,
      "একে": 1993,
      "নিশ্চ": 1994,
      "হাঁ": 1995,
      "জল": 1996,
      "গ্র": 1997,
      "যাই": 1998,
      "পু": 1999,
      "শব্দ": 2000,
      "##ভাব": 2001,
      "##ক্ষে": 2002,
      "##ন্দর": 2003,
      "##টির": 2004,
      "ওদের": 2005,
      "##কর": 2006,
      "##তী": 2007,
      "জিজ্ঞ": 2008,
      "বিন": 2009,
      "##লার": 2010,
      "##িকা": 2011,
      "জানি": 2012,
      "##ালি": 2013,
      "আপনা": 2014,
      "##োন": 2015,
      "##্লাহ": 2016,
      "ভাই": 2017,
      "বৃ": 2018,
      "##ুকে": 2019,
      "উত্ত": 2020,
      "পৃ": 2021,
      "সবাই": 2022,
      "এবার": 2023,
      "মার": 2024,
      "##যোগ": 2025,
      "##হেব": 2026,
      "পারি": 2027,
      "হি": 2028,
      "করেছে": 2029,
      "ফেলে": 2030,
      "##ম্ভ": 2031,
      "বহ": 2032,
      "মাঝে": 2033,
      "চোখে": 2034,
      "##মু": 2035,
      "জ্ব": 2036,
      "ঘো": 2037,
      "##্যের": 2038,
      "##কাশ": 2039,
      "##স্ব": 2040,
      "টাকা": 2041,
      "##ধার": 2042,
      "##িক্ষ": 2043,
      "##ীরে": 2044,
      "পথ": 2045,
      "ঘট": 2046,
      "##িনী": 2047,
      "##ণের": 2048,
      "##লায়": 2049,
      "##ার্ক": 2050,
      "##re": 2051,
      "পৃথ": 2052,
      "##শী": 2053,
      "##ou": 2054,
      "বুঝতে": 2055,
      "##র্ষ": 2056,
      "##ার্থ": 2057,
      "মানুষের": 2058,
      "ছে": 2059,
      "##কো": 2060,
      "হ্যাঁ": 2061,
      "লাগল": 2062,
      "ভেত": 2063,
      "##মদ": 2064,
      "##রূপ": 2065,
      "##ম্": 2066,
      "আত্ম": 2067,
      "##াট": 2068,
      "##স্ট": 2069,
      "##ধে": 2070,
      "##পুর": 2071,
      "##সার": 2072,
      "মাস": 2073,
      "##জার": 2074,
      "##েলা": 2075,
      "শি": 2076,
      "##ন্ড": 2077,
      "পৌ": 2078,
      "##গ্র": 2079,
      "##en": 2080,
      "সমস্ত": 2081,
      "তুল": 2082,
      "সেখানে": 2083,
      "##ত্": 2084,
      "##োল": 2085,
      "দী": 2086,
      "সময়": 2087,
      "##টাকে": 2088,
      "##চ্ছা": 2089,
      "পাঠ": 2090,
      "##সম": 2091,
      "আব": 2092,
      "সম্ভ": 2093,
      "##ন্ম": 2094,
      "##ালের": 2095,
      "বাহ": 2096,
      "পড়ে": 2097,
      "##ব্য": 2098,
      "বিশ্বাস": 2099,
      "সাহেব": 2100,
      "##্যাম": 2101,
      "অথ": 2102,
      "##ত্যা": 2103,
      "পাই": 2104,
      "ঘর": 2105,
      "কেমন": 2106,
      "হয়েছে": 2107,
      "##্যান": 2108,
      "##es": 2109,
      "ধার": 2110,
      "##বাদ": 2111,
      "##ংশ": 2112,
      "##ওয়া": 2113,
      "লক্ষ": 2114,
      "##ধান": 2115,
      "জীবন": 2116,
      "কাম": 2117,
      "আরও": 2118,
      "কয়ে": 2119,
      "রাত": 2120,
      "##চ্ছি": 2121,
      "তবু": 2122,
      "অন্ত": 2123,
      "করলেন": 2124,
      "বাড়ি": 2125,
      "আহমদ": 2126,
      "চেয়ে": 2127,
      "##হিত": 2128,
      "##ক্": 2129,
      "খুঁ": 2130,
      "##দেশ": 2131,
      "দাঁড়িয়ে": 2132,
      "নাকি": 2133,
      "##িয়": 2134,
      "স্প": 2135,
      "##ীয়": 2136,
      "জ্": 2137,
      "নত": 2138,
      "কথ": 2139,
      "of": 2140,
      "বিশ": 2141,
      "দুঃ": 2142,
      "##িকার": 2143,
      "ধর্ম": 2144,
      "উৎ": 2145,
      "বাস": 2146,
      "##ূর্ব": 2147,
      "বৈ": 2148,
      "বোঝ": 2149,
      "অন্ধ": 2150,
      "##িত্র": 2151,
      "যেমন": 2152,
      "##ামী": 2153,
      "##য়ার": 2154,
      "শরীর": 2155,
      "যাব": 2156,
      "##েস": 2157,
      "বাড়": 2158,
      "##on": 2159,
      "##প্ত": 2160,
      "ভয়": 2161,
      "##গত": 2162,
      "করব": 2163,
      "আশ": 2164,
      "কিছুই": 2165,
      "খবর": 2166,
      "বলেন": 2167,
      "কয়েক": 2168,
      "পুরুষ": 2169,
      "সত্যি": 2170,
      "প্রাণ": 2171,
      "রাখুন": 2172,
      "লো": 2173,
      "তোমাদের": 2174,
      "ক্র": 2175,
      "বছর": 2176,
      "উদ্": 2177,
      "তাহা": 2178,
      "##ায়ের": 2179,
      "বিশেষ": 2180,
      "পৃথিব": 2181,
      "হা": 2182,
      "নিজে": 2183,
      "জো": 2184,
      "বই": 2185,
      "পেয়ে": 2186,
      "দাঁড়": 2187,
      "শহ": 2188,
      "ভার": 2189,
      "জ্ঞ": 2190,
      "##্যার": 2191,
      "##চ্চ": 2192,
      "##হারা": 2193,
      "অবশ্য": 2194,
      "আক": 2195,
      "গলা": 2196,
      "##ন্ট": 2197,
      "গর": 2198,
      "##েরা": 2199,
      "আই": 2200,
      "##মার্ক": 2201,
      "সম্পর্": 2202,
      "and": 2203,
      "বুকমার্ক": 2204,
      "সুন্দর": 2205,
      "গিয়ে": 2206,
      "দাঁড়": 2207,
      "ভিত": 2208,
      "রকম": 2209,
      "ওকে": 2210,
      "পো": 2211,
      "বিপ": 2212,
      "তুই": 2213,
      "##বারে": 2214,
      "তোর": 2215,
      "##ed": 2216,
      "##th": 2217,
      "গু": 2218,
      "নতুন": 2219,
      "অম": 2220,
      "##শ্বর": 2221,
      "##ৃতি": 2222,
      "দো": 2223,
      "রাস্ত": 2224,
      "দুটো": 2225,
      "চাল": 2226,
      "বাইরে": 2227,
      "বলা": 2228,
      "##বাবু": 2229,
      "##ভা": 2230,
      "সকল": 2231,
      "##জের": 2232,
      "##দ্ব": 2233,
      "##লেও": 2234,
      "##পের": 2235,
      "##ন্দে": 2236,
      "থাকতে": 2237,
      "##গ্": 2238,
      "পৌঁ": 2239,
      "##or": 2240,
      "প্রে": 2241,
      "দরকার": 2242,
      "##ll": 2243,
      "হাজ": 2244,
      "##ান্য": 2245,
      "##an": 2246,
      "মর": 2247,
      "তোমরা": 2248,
      "খাও": 2249,
      "##ূর্": 2250,
      "##নাথ": 2251,
      "জায়": 2252,
      "আদ": 2253,
      "হার": 2254,
      "##স্ম": 2255,
      "নির্": 2256,
      "রূপ": 2257,
      "##িন্দ": 2258,
      "জিনি": 2259,
      "এসেছে": 2260,
      "গাছ": 2261,
      "চুপ": 2262,
      "দেখি": 2263,
      "##গুলি": 2264,
      "##টাই": 2265,
      "পাঁচ": 2266,
      "কোথায়": 2267,
      "বললাম": 2268,
      "একদিন": 2269,
      "মানে": 2270,
      "ব্র": 2271,
      "রহ": 2272,
      "তৈ": 2273,
      "দূর": 2274,
      "দেয়": 2275,
      "দা": 2276,
      "আল্লাহ": 2277,
      "##ান্ড": 2278,
      "মুহ": 2279,
      "##ূর্ত": 2280,
      "##্যাক": 2281,
      "তাতে": 2282,
      "##লোক": 2283,
      "দাও": 2284,
      "খুলে": 2285,
      "##্তার": 2286,
      "##ঠি": 2287,
      "করিয়া": 2288,
      "##োজন": 2289,
      "প্রভ": 2290,
      "##বী": 2291,
      "শ্র": 2292,
      "##ুটে": 2293,
      "অফ": 2294,
      "##ধি": 2295,
      "##ণী": 2296,
      "##জ্জ": 2297,
      "হেসে": 2298,
      "##িন্ন": 2299,
      "প্রায়": 2300,
      "খু": 2301,
      "কব": 2302,
      "অন্ধকার": 2303,
      "মৃত্য": 2304,
      "##ৎকার": 2305,
      "##চ্ছিল": 2306,
      "কাছ": 2307,
      "মেয়ে": 2308,
      "মিল": 2309,
      "হো": 2310,
      "দশ": 2311,
      "তাকিয়ে": 2312,
      "বেরিয়ে": 2313,
      "##ar": 2314,
      "ভুল": 2315,
      "জা": 2316,
      "বললে": 2317,
      "##গণ": 2318,
      "##ঙ্ক": 2319,
      "##বর্ত": 2320,
      "##ংস": 2321,
      "কেবল": 2322,
      "ভেবে": 2323,
      "##পি": 2324,
      "##াকুর": 2325,
      "##াক্ষ": 2326,
      "##াইয়া": 2327,
      "পুল": 2328,
      "পাশে": 2329,
      "আপনাকে": 2330,
      "রাম": 2331,
      "রাজা": 2332,
      "কর্ম": 2333,
      "নিক": 2334,
      "অতি": 2335,
      "সম্ভব": 2336,
      "##াসা": 2337,
      "##রো": 2338,
      "##টুক": 2339,
      "##াসে": 2340,
      "রই": 2341,
      "ফ্র": 2342,
      "শান্ত": 2343,
      "##গের": 2344,
      "প্রশ্ন": 2345,
      "মহা": 2346,
      "##বেশ": 2347,
      "দরজা": 2348,
      "যোগ": 2349,
      "হোক": 2350,
      "##তাম": 2351,
      "বলিল": 2352,
      "গল্প": 2353,
      "##ীম": 2354,
      "##ভি": 2355,
      "পেছ": 2356,
      "খো": 2357,
      "খান": 2358,
      "পান": 2359,
      "##িরে": 2360,
      "সম্ব": 2361,
      "লাভ": 2362,
      "উত্তর": 2363,
      "মাত্র": 2364,
      "সারা": 2365,
      "##ামা": 2366,
      "দ্র": 2367,
      "অভি": 2368,
      "##সল": 2369,
      "##র্থ": 2370,
      "##তের": 2371,
      "পেল": 2372,
      "করেছেন": 2373,
      "গেলে": 2374,
      "পিছ": 2375,
      "জিনিস": 2376,
      "করলে": 2377,
      "দুঃখ": 2378,
      "ঘরের": 2379,
      "to": 2380,
      "##মনি": 2381,
      "বললো": 2382,
      "মাল": 2383,
      "আরো": 2384,
      "কহ": 2385,
      "##স্থিত": 2386,
      "##কৃত": 2387,
      "##কালে": 2388,
      "ক্ল": 2389,
      "গান": 2390,
      "হও": 2391,
      "##ুদ্র": 2392,
      "##াচ": 2393,
      "##নো": 2394,
      "যুদ্ধ": 2395,
      "অবস্থা": 2396,
      "ইতি": 2397,
      "##ব্": 2398,
      "##is": 2399,
      "ভি": 2400,
      "উল": 2401,
      "হাসি": 2402,
      "শা": 2403,
      "হৃ": 2404,
      "হত": 2405,
      "##ভূ": 2406,
      "ভাগ": 2407,
      "চাপ": 2408,
      "ভাবে": 2409,
      "তর": 2410,
      "বলি": 2411,
      "কখনও": 2412,
      "##মাত্র": 2413,
      "##ুলি": 2414,
      "জানতে": 2415,
      "প্রত্য": 2416,
      "দৃ": 2417,
      "এখনও": 2418,
      "##াসের": 2419,
      "##ন্ধে": 2420,
      "ছিলেন": 2421,
      "wh": 2422,
      "ভাষ": 2423,
      "##ূরে": 2424,
      "থাকবে": 2425,
      "পড়ল": 2426,
      "##াত্ম": 2427,
      "খারা": 2428,
      "জিজ্ঞেস": 2429,
      "দ্বারা": 2430,
      "##ান্স": 2431,
      "বাড়িতে": 2432,
      "##ীতে": 2433,
      "বদ": 2434,
      "স্বা": 2435,
      "আপন": 2436,
      "##ভার": 2437,
      "বিল": 2438,
      "চম": 2439,
      "ওঠে": 2440,
      "##চি": 2441,
      "##াতি": 2442,
      "##ing": 2443,
      "##ভে": 2444,
      "খা": 2445,
      "ফাঁ": 2446,
      "in": 2447,
      "খারাপ": 2448,
      "আসছে": 2449,
      "##হি": 2450,
      "এগিয়ে": 2451,
      "##াকার": 2452,
      "##িন্": 2453,
      "বাং": 2454,
      "যার": 2455,
      "ছাড়া": 2456,
      "রয়ে": 2457,
      "মুসা": 2458,
      "##বো": 2459,
      "##্লে": 2460,
      "ভর": 2461,
      "নিতে": 2462,
      "একেবারে": 2463,
      "##মের": 2464,
      "##ুক্ষ": 2465,
      "##দু": 2466,
      "লাল": 2467,
      "স্ত্রী": 2468,
      "##ত্তি": 2469,
      "দৃষ্টি": 2470,
      "অর্থ": 2471,
      "##াবি": 2472,
      "##ত্ব": 2473,
      "হইয়া": 2474,
      "##ুলের": 2475,
      "নেমে": 2476,
      "##শন": 2477,
      "সুখ": 2478,
      "করো": 2479,
      "##সর": 2480,
      "##ালো": 2481,
      "##ামে": 2482,
      "বাজ": 2483,
      "পারবে": 2484,
      "লাগে": 2485,
      "খেতে": 2486,
      "ভদ্র": 2487,
      "একা": 2488,
      "জ্ঞান": 2489,
      "দেবে": 2490,
      "ভগ": 2491,
      "##চনা": 2492,
      "হয়তো": 2493,
      "শক্ত": 2494,
      "পূর্ব": 2495,
      "##ছা": 2496,
      "ধীরে": 2497,
      "বিশ্ব": 2498,
      "ছি": 2499,
      "রক্ত": 2500,
      "ছেড়ে": 2501,
      "লই": 2502,
      "অর্থা": 2503,
      "##স্তে": 2504,
      "##খানা": 2505,
      "##দিক": 2506,
      "##খি": 2507,
      "নিল": 2508,
      "যারা": 2509,
      "##পন": 2510,
      "দিক": 2511,
      "##ীদের": 2512,
      "ঢুক": 2513,
      "চোখের": 2514,
      "##িলা": 2515,
      "##েক": 2516,
      "কখনো": 2517,
      "##ক্র": 2518,
      "অর্থাৎ": 2519,
      "স্ম": 2520,
      "আরে": 2521,
      "মুক্ত": 2522,
      "ভূ": 2523,
      "##মাণ": 2524,
      "বাল": 2525,
      "বুদ্ধ": 2526,
      "##ামের": 2527,
      "আছেন": 2528,
      "##্যাপ": 2529,
      "##পরে": 2530,
      "বন্দ": 2531,
      "##ষণ": 2532,
      "ঠাকুর": 2533,
      "প্রস": 2534,
      "তত": 2535,
      "দিলেন": 2536,
      "##বান": 2537,
      "গলায়": 2538,
      "তৈরি": 2539,
      "জন্ম": 2540,
      "##ধারণ": 2541,
      "দেশ": 2542,
      "##তির": 2543,
      "সম্ম": 2544,
      "অপে": 2545,
      "##গো": 2546,
      "দূরে": 2547,
      "আসতে": 2548,
      "এস": 2549,
      "সুব": 2550,
      "বাঁচ": 2551,
      "সার": 2552,
      "আঁ": 2553,
      "চিন্তা": 2554,
      "##ুরি": 2555,
      "ভয়": 2556,
      "এসব": 2557,
      "সুর": 2558,
      "জগ": 2559,
      "পারেন": 2560,
      "বহু": 2561,
      "প্রকাশ": 2562,
      "আনন্দ": 2563,
      "বিভ": 2564,
      "কোথাও": 2565,
      "করেছি": 2566,
      "হইল": 2567,
      "আট": 2568,
      "##দেব": 2569,
      "গ্রহ": 2570,
      "##িত্ব": 2571,
      "is": 2572,
      "নিজেকে": 2573,
      "##র্য": 2574,
      "##হের": 2575,
      "##ঙে": 2576,
      "ডাক্তার": 2577,
      "ঘুরে": 2578,
      "অবাক": 2579,
      "ইচ্ছে": 2580,
      "সূর": 2581,
      "##দান": 2582,
      "বিক": 2583,
      "যু": 2584,
      "##র্ঘ": 2585,
      "##টিতে": 2586,
      "পথে": 2587,
      "বাত": 2588,
      "আলা": 2589,
      "দেখল": 2590,
      "##জনের": 2591,
      "##্বল": 2592,
      "পাওয়া": 2593,
      "সৈ": 2594,
      "ইং": 2595,
      "##েলি": 2596,
      "হৃদ": 2597,
      "##ডি": 2598,
      "পরিচ": 2599,
      "##রী": 2600,
      "##ৃষ্ণ": 2601,
      "জু": 2602,
      "গাড়ি": 2603,
      "##াইল": 2604,
      "##হায": 2605,
      "চাক": 2606,
      "##্বে": 2607,
      "হয়েছিল": 2608,
      "নম": 2609,
      "##েলের": 2610,
      "##কেই": 2611,
      "কিং": 2612,
      "##ুজ": 2613,
      "বন্ধু": 2614,
      "ছবি": 2615,
      "কথাটা": 2616,
      "নারী": 2617,
      "##টুকু": 2618,
      "##ঙ্গে": 2619,
      "##ত্রে": 2620,
      "করছি": 2621,
      "##শো": 2622,
      "ফ্রান্স": 2623,
      "##তু": 2624,
      "চিঠি": 2625,
      "you": 2626,
      "##ঘাত": 2627,
      "খেয়ে": 2628,
      "##্রহ্ম": 2629,
      "সূ": 2630,
      "ঘা": 2631,
      "##as": 2632,
      "এনে": 2633,
      "##হীন": 2634,
      "##ত্ত্ব": 2635,
      "সাহায": 2636,
      "মুখের": 2637,
      "##থার": 2638,
      "কাগ": 2639,
      "লোকটা": 2640,
      "মনের": 2641,
      "##জনে": 2642,
      "মূল": 2643,
      "পুত্র": 2644,
      "মুসল": 2645,
      "পুরো": 2646,
      "##নী": 2647,
      "উনি": 2648,
      "##ড়ো": 2649,
      "স্যার": 2650,
      "কাপ": 2651,
      "কালো": 2652,
      "বয়": 2653,
      "##খ্য": 2654,
      "করবেন": 2655,
      "হাজার": 2656,
      "নিঃ": 2657,
      "be": 2658,
      "##জ্ঞান": 2659,
      "সম্পর্কে": 2660,
      "রয়েছে": 2661,
      "পাথ": 2662,
      "স্বপ": 2663,
      "গেলেন": 2664,
      "গভ": 2665,
      "শ্রী": 2666,
      "প্রচ": 2667,
      "তাঁহার": 2668,
      "ফ্রান্সিস": 2669,
      "সাধ": 2670,
      "সন্দে": 2671,
      "কণ্": 2672,
      "চেয়ে": 2673,
      "রাত্র": 2674,
      "##la": 2675,
      "বউ": 2676,
      "ডি": 2677,
      "##োহ": 2678,
      "ভেতর": 2679,
      "##ড়ির": 2680,
      "বাড়ি": 2681,
      "দল": 2682,
      "##om": 2683,
      "নিত": 2684,
      "বান": 2685,
      "চর": 2686,
      "কাউ": 2687,
      "##শু": 2688,
      "লেখা": 2689,
      "##্যায়": 2690,
      "কষ্ট": 2691,
      "হিসে": 2692,
      "মন্দ": 2693,
      "ঘটনা": 2694,
      "পায়": 2695,
      "শিক্ষ": 2696,
      "##হাস": 2697,
      "জানা": 2698,
      "স্বামী": 2699,
      "##েরি": 2700,
      "আগেই": 2701,
      "##ান্না": 2702,
      "একই": 2703,
      "দেওয়া": 2704,
      "পুলিশ": 2705,
      "##স্ক": 2706,
      "চির": 2707,
      "তেমন": 2708,
      "জাহা": 2709,
      "##্থ": 2710,
      "দিয়া": 2711,
      "ঘুর": 2712,
      "ব্যবস্থা": 2713,
      "কলক": 2714,
      "থাম": 2715,
      "##্যাল": 2716,
      "১০": 2717,
      "রাতে": 2718,
      "বর্ণ": 2719,
      "দীর্ঘ": 2720,
      "থেকেই": 2721,
      "##َا": 2722,
      "কৌ": 2723,
      "##দ্ভ": 2724,
      "সেদিন": 2725,
      "দুর্": 2726,
      "রি": 2727,
      "অথচ": 2728,
      "wi": 2729,
      "ভাঙ": 2730,
      "সন্ধ": 2731,
      "বুঝি": 2732,
      "##য়াল": 2733,
      "কিছুক্ষ": 2734,
      "সাব": 2735,
      "শুনতে": 2736,
      "ওঁ": 2737,
      "ব্যবহার": 2738,
      "কন": 2739,
      "##ুটি": 2740,
      "##ve": 2741,
      "##ার্ড": 2742,
      "স্ক": 2743,
      "করেছিল": 2744,
      "পাত": 2745,
      "কোথায়": 2746,
      "উচিত": 2747,
      "ব্যক্তি": 2748,
      "ধরা": 2749,
      "পাহা": 2750,
      "জবাব": 2751,
      "বিছ": 2752,
      "##ণি": 2753,
      "##লী": 2754,
      "ফুল": 2755,
      "রাগ": 2756,
      "যেখানে": 2757,
      "লিখ": 2758,
      "কঠ": 2759,
      "বলিয়া": 2760,
      "নব": 2761,
      "আচ্ছা": 2762,
      "বাবার": 2763,
      "আসবে": 2764,
      "শত": 2765,
      "বিস্ম": 2766,
      "##্তি": 2767,
      "দুটি": 2768,
      "নামে": 2769,
      "লেখ": 2770,
      "হইবে": 2771,
      "##তিক": 2772,
      "অবস্থ": 2773,
      "ভেতরে": 2774,
      "নীল": 2775,
      "ঢুকে": 2776,
      "খানিক": 2777,
      "পাশ": 2778,
      "##ড়ের": 2779,
      "##বাহ": 2780,
      "পদ": 2781,
      "করিল": 2782,
      "শুক": 2783,
      "থাকা": 2784,
      "##্বা": 2785,
      "##্যাগ": 2786,
      "ব্রহ্ম": 2787,
      "দেয়": 2788,
      "##পাল": 2789,
      "কাট": 2790,
      "##ীরা": 2791,
      "পক্ষে": 2792,
      "অপেক্ষা": 2793,
      "##ড়ার": 2794,
      "ইন্দ্র": 2795,
      "এখান": 2796,
      "আকা": 2797,
      "##ষে": 2798,
      "টি": 2799,
      "ব্যাপারটা": 2800,
      "##্যো": 2801,
      "খেল": 2802,
      "##সং": 2803,
      "বাড়ির": 2804,
      "জাত": 2805,
      "দোক": 2806,
      "ডে": 2807,
      "##ষ্কার": 2808,
      "##িনে": 2809,
      "পঞ্চ": 2810,
      "অফিস": 2811,
      "##িরা": 2812,
      "আধ": 2813,
      "নিশ্চয়": 2814,
      "অস্ত": 2815,
      "সাত": 2816,
      "উদ্দে": 2817,
      "##বন": 2818,
      "পাগ": 2819,
      "দান": 2820,
      "কেটে": 2821,
      "##তন": 2822,
      "মিথ": 2823,
      "নানা": 2824,
      "নর": 2825,
      "রঙ": 2826,
      "অপর": 2827,
      "সন্": 2828,
      "##ম্প": 2829,
      "দ্বিত": 2830,
      "##রাজ": 2831,
      "আছি": 2832,
      "জিজ্ঞাসা": 2833,
      "করুন": 2834,
      "##্ড": 2835,
      "##খানি": 2836,
      "##টিকে": 2837,
      "অত্য": 2838,
      "রইল": 2839,
      "যাবার": 2840,
      "বলেই": 2841,
      "##ানোর": 2842,
      "দেহ": 2843,
      "দক্ষ": 2844,
      "ফল": 2845,
      "সহজ": 2846,
      "হাতের": 2847,
      "##দন": 2848,
      "হয়নি": 2849,
      "শিশ": 2850,
      "##ীকে": 2851,
      "ব্যাপারে": 2852,
      "ভেঙে": 2853,
      "দ্রুত": 2854,
      "তাঁকে": 2855,
      "ছুটে": 2856,
      "##শ্র": 2857,
      "পাক": 2858,
      "জীবনের": 2859,
      "মেরে": 2860,
      "##it": 2861,
      "##ুখ": 2862,
      "ধন": 2863,
      "ইচ্ছা": 2864,
      "খুঁজে": 2865,
      "দেশে": 2866,
      "দেশের": 2867,
      "ধরনের": 2868,
      "উপরে": 2869,
      "বন": 2870,
      "বিদ": 2871,
      "##মার": 2872,
      "বাগ": 2873,
      "খোঁ": 2874,
      "কিংবা": 2875,
      "##িত্ত": 2876,
      "শক্তি": 2877,
      "আস্তে": 2878,
      "ট্র": 2879,
      "মাথায়": 2880,
      "##রকম": 2881,
      "ইউ": 2882,
      "খাবার": 2883,
      "কাজে": 2884,
      "সন্ত": 2885,
      "সম্বন্ধে": 2886,
      "বাংলা": 2887,
      "টান": 2888,
      "##িনা": 2889,
      "থাকলে": 2890,
      "সন্দেহ": 2891,
      "ডেকে": 2892,
      "##জো": 2893,
      "he": 2894,
      "মন্ত্র": 2895,
      "##ষ্য": 2896,
      "##যুক্ত": 2897,
      "নিকট": 2898,
      "##গ্রহ": 2899,
      "রাখা": 2900,
      "ঘটে": 2901,
      "গৃ": 2902,
      "ফের": 2903,
      "##ুনি": 2904,
      "##গর": 2905,
      "ইস": 2906,
      "গ্রহণ": 2907,
      "টেনে": 2908,
      "বলো": 2909,
      "মারা": 2910,
      "##ুলো": 2911,
      "ঝাঁ": 2912,
      "লাই": 2913,
      "আগুন": 2914,
      "নিম": 2915,
      "প্রয়": 2916,
      "##ছন্দ": 2917,
      "করলাম": 2918,
      "অ্যা": 2919,
      "সাধারণ": 2920,
      "##al": 2921,
      "##াইতে": 2922,
      "চায়": 2923,
      "ঈশ্বর": 2924,
      "বটে": 2925,
      "বিয়ে": 2926,
      "তাকাল": 2927,
      "গভীর": 2928,
      "##চু": 2929,
      "গন্ধ": 2930,
      "কিছুক্ষণ": 2931,
      "বলছি": 2932,
      "সামান্য": 2933,
      "লম্ব": 2934,
      "পেরে": 2935,
      "খুশি": 2936,
      "##তঃ": 2937,
      "##িয়াছে": 2938,
      "দিলে": 2939,
      "##ৃষ্ট": 2940,
      "চিৎকার": 2941,
      "বাদ": 2942,
      "নৌ": 2943,
      "খুবই": 2944,
      "##ৎস": 2945,
      "##টায়": 2946,
      "এলো": 2947,
      "সাহ": 2948,
      "##ালী": 2949,
      "##ষু": 2950,
      "ধারণা": 2951,
      "লিখে": 2952,
      "##ভব": 2953,
      "মেঘ": 2954,
      "##পাত": 2955,
      "যান": 2956,
      "প্রবেশ": 2957,
      "রস": 2958,
      "জোর": 2959,
      "##se": 2960,
      "মিনি": 2961,
      "পৌঁছ": 2962,
      "জায়গ": 2963,
      "শিব": 2964,
      "##ুদ": 2965,
      "##ীতি": 2966,
      "হিসেবে": 2967,
      "মাছ": 2968,
      "চুল": 2969,
      "যুব": 2970,
      "##ay": 2971,
      "গায়ে": 2972,
      "অনি": 2973,
      "কিনা": 2974,
      "অত্যন্ত": 2975,
      "##ীকার": 2976,
      "পুন": 2977,
      "যাওয়া": 2978,
      "যাক": 2979,
      "সাহায্য": 2980,
      "##স্যা": 2981,
      "জীবনে": 2982,
      "সৃষ্টি": 2983,
      "পেয়ে": 2984,
      "বাব": 2985,
      "##েন": 2986,
      "নার": 2987,
      "আকাশ": 2988,
      "পিত": 2989,
      "##িকি": 2990,
      "##র্শন": 2991,
      "সৈন্য": 2992,
      "##্যাস": 2993,
      "অথবা": 2994,
      "আরেক": 2995,
      "পেছনে": 2996,
      "জানেন": 2997,
      "বোঝা": 2998,
      "তু": 2999,
      "ত্র": 3000,
      "ভালোবাস": 3001,
      "জায়গা": 3002,
      "বৃদ্ধ": 3003,
      "মাত": 3004,
      "ক্ষম": 3005,
      "##ষ্ণ": 3006,
      "##ুকুর": 3007,
      "কান": 3008,
      "দিয়েছে": 3009,
      "মতন": 3010,
      "সূর্য": 3011,
      "সুত": 3012,
      "##র্গ": 3013,
      "আশ্চ": 3014,
      "##ফি": 3015,
      "##ফল": 3016,
      "##খ্যা": 3017,
      "পূ": 3018,
      "##ুমার": 3019,
      "খুন": 3020,
      "ভদ্রলোক": 3021,
      "##সী": 3022,
      "থাকি": 3023,
      "পশ্চ": 3024,
      "লক্ষ্য": 3025,
      "##পতি": 3026,
      "##ঁচে": 3027,
      "স্ট": 3028,
      "##চের": 3029,
      "মাথার": 3030,
      "##্স": 3031,
      "আশা": 3032,
      "শত্র": 3033,
      "সৌ": 3034,
      "উপস্থিত": 3035,
      "শোনা": 3036,
      "পরী": 3037,
      "পছন্দ": 3038,
      "##জর": 3039,
      "##দ্ভুত": 3040,
      "উদ": 3041,
      "প্রধান": 3042,
      "লেগে": 3043,
      "বোধহ": 3044,
      "এদের": 3045,
      "সিদ্ধ": 3046,
      "কৃ": 3047,
      "দেও": 3048,
      "গত": 3049,
      "##পু": 3050,
      "##বৃ": 3051,
      "মাই": 3052,
      "##ভাবিক": 3053,
      "শাস্ত": 3054,
      "ফলে": 3055,
      "##োকা": 3056,
      "হন": 3057,
      "গুর": 3058,
      "##জন্য": 3059,
      "কাঠ": 3060,
      "##িকের": 3061,
      "কর্ত": 3062,
      "ক্ষে": 3063,
      "গৌ": 3064,
      "সকলের": 3065,
      "ফুট": 3066,
      "গোল": 3067,
      "নই": 3068,
      "##বেলা": 3069,
      "##ধুর": 3070,
      "##্যান্ড": 3071,
      "##ামি": 3072,
      "যন্ত্র": 3073,
      "মৃত্যু": 3074,
      "সুযোগ": 3075,
      "আয়": 3076,
      "##গ্ন": 3077,
      "দেন": 3078,
      "##পো": 3079,
      "অল্প": 3080,
      "##র্ক": 3081,
      "##ষা": 3082,
      "এরকম": 3083,
      "এরা": 3084,
      "অদ্ভুত": 3085,
      "ওটা": 3086,
      "##চা": 3087,
      "পৌঁছে": 3088,
      "লম্বা": 3089,
      "হিন্দ": 3090,
      "চৌ": 3091,
      "সময়ে": 3092,
      "ধ্ব": 3093,
      "##বের": 3094,
      "দিনের": 3095,
      "##পাশে": 3096,
      "কঠিন": 3097,
      "স্থান": 3098,
      "আপনাদের": 3099,
      "ইত্যা": 3100,
      "##াহ্ম": 3101,
      "##ড়িয়ে": 3102,
      "উত্": 3103,
      "লোকের": 3104,
      "ছুট": 3105,
      "##ূহ": 3106,
      "চেহারা": 3107,
      "কাঁদ": 3108,
      "লাগছে": 3109,
      "বাড়িতে": 3110,
      "পাপ": 3111,
      "লুক": 3112,
      "পূর্ণ": 3113,
      "বেঁ": 3114,
      "খুল": 3115,
      "নিচে": 3116,
      "##ানার": 3117,
      "সমুদ্র": 3118,
      "##ডে": 3119,
      "##জিত": 3120,
      "সম্পূর্ণ": 3121,
      "চাঁ": 3122,
      "টেলি": 3123,
      "পরম": 3124,
      "কারণে": 3125,
      "##তম": 3126,
      "সরকার": 3127,
      "আয়": 3128,
      "জাম": 3129,
      "##গারে": 3130,
      "নো": 3131,
      "##াইয়া": 3132,
      "##থি": 3133,
      "উদ্দেশ্য": 3134,
      "##ভাগ": 3135,
      "রাখতে": 3136,
      "হাও": 3137,
      "নদী": 3138,
      "সিঁ": 3139,
      "##বিল": 3140,
      "দাঁড়িয়ে": 3141,
      "বাঙ": 3142,
      "অংশ": 3143,
      "প্রায়": 3144,
      "ভারত": 3145,
      "##োপ": 3146,
      "হবার": 3147,
      "সবচে": 3148,
      "বেঁচে": 3149,
      "দার": 3150,
      "হলেও": 3151,
      "কহিল": 3152,
      "কয়ে": 3153,
      "বাঘ": 3154,
      "বলব": 3155,
      "দৌ": 3156,
      "##ঙ্গল": 3157,
      "##চর": 3158,
      "##ার্ট": 3159,
      "মুসলমান": 3160,
      "##্টার": 3161,
      "জায়": 3162,
      "##হু": 3163,
      "পল": 3164,
      "হাঁট": 3165,
      "করছেন": 3166,
      "পৃথিবীর": 3167,
      "যুক্ত": 3168,
      "ভী": 3169,
      "ভূত": 3170,
      "no": 3171,
      "##পূর্ণ": 3172,
      "শুয়ে": 3173,
      "দুজন": 3174,
      "##স্তি": 3175,
      "ভুলে": 3176,
      "পাওয়া": 3177,
      "##দীর": 3178,
      "যাতে": 3179,
      "মধ্যেই": 3180,
      "##নায়": 3181,
      "ভঙ্গ": 3182,
      "পাবে": 3183,
      "প্রেম": 3184,
      "##ion": 3185,
      "কই": 3186,
      "সঙ্গ": 3187,
      "রোগ": 3188,
      "আমিও": 3189,
      "সিং": 3190,
      "ঘণ্": 3191,
      "##ুস": 3192,
      "কলকাত": 3193,
      "প্রমাণ": 3194,
      "ভিতরে": 3195,
      "পারব": 3196,
      "শিল": 3197,
      "##স্কার": 3198,
      "মশ": 3199,
      "দোষ": 3200,
      "কাউকে": 3201,
      "ওপরে": 3202,
      "##াশ": 3203,
      "গলায়": 3204,
      "পানি": 3205,
      "আশ্চর্য": 3206,
      "প্রাচ": 3207,
      "স্থির": 3208,
      "##গুলোর": 3209,
      "শুনি": 3210,
      "নিয়": 3211,
      "বলুন": 3212,
      "থাকেন": 3213,
      "##রাধ": 3214,
      "থে": 3215,
      "এসেছি": 3216,
      "##িনের": 3217,
      "বরং": 3218,
      "বলার": 3219,
      "বলবে": 3220,
      "বুঝে": 3221,
      "দক্ষি": 3222,
      "এখনো": 3223,
      "বিজ": 3224,
      "মাম": 3225,
      "##কেট": 3226,
      "##ছিলো": 3227,
      "##্ণ": 3228,
      "ওখানে": 3229,
      "ভিতর": 3230,
      "জানো": 3231,
      "ভালবাস": 3232,
      "হাল": 3233,
      "##ূন্য": 3234,
      "অল": 3235,
      "পারছি": 3236,
      "##ha": 3237,
      "পারল": 3238,
      "সমাজ": 3239,
      "বলিলেন": 3240,
      "##রাং": 3241,
      "করেই": 3242,
      "বলছে": 3243,
      "জাগ": 3244,
      "##ৈব": 3245,
      "রাস্তা": 3246,
      "বিদ্য": 3247,
      "##ir": 3248,
      "দিচ্ছে": 3249,
      "উঁচ": 3250,
      "##তুর": 3251,
      "শীত": 3252,
      "মনো": 3253,
      "করেছিলেন": 3254,
      "বিরুদ্ধ": 3255,
      "কাটা": 3256,
      "##ুবি": 3257,
      "বলেছেন": 3258,
      "চাহ": 3259,
      "নির্ব": 3260,
      "সমা": 3261,
      "##ভ্য": 3262,
      "আপনারা": 3263,
      "যাওয়ার": 3264,
      "##টক": 3265,
      "কল্প": 3266,
      "##তর": 3267,
      "##দ্দ": 3268,
      "অনুস": 3269,
      "গর্": 3270,
      "সাদা": 3271,
      "আসি": 3272,
      "বেল": 3273,
      "রোজ": 3274,
      "##গ্নি": 3275,
      "নিজেদের": 3276,
      "সাজ": 3277,
      "for": 3278,
      "করত": 3279,
      "ড্র": 3280,
      "তেমনি": 3281,
      "মিশ": 3282,
      "##ুখে": 3283,
      "বাক": 3284,
      "আসলে": 3285,
      "পায়": 3286,
      "##্যাং": 3287,
      "ছুঁ": 3288,
      "ছিলো": 3289,
      "ইংরে": 3290,
      "মুহূর্": 3291,
      "##কেল": 3292,
      "দাদ": 3293,
      "জমি": 3294,
      "বারান্": 3295,
      "কানে": 3296,
      "##দেশে": 3297,
      "চায়": 3298,
      "একমাত্র": 3299,
      "চেপে": 3300,
      "সাই": 3301,
      "সেখান": 3302,
      "হ্য": 3303,
      "##ুতে": 3304,
      "স্পষ্ট": 3305,
      "কয়েক": 3306,
      "বলেছে": 3307,
      "or": 3308,
      "##্নে": 3309,
      "শ্রে": 3310,
      "রাস": 3311,
      "ইহা": 3312,
      "##le": 3313,
      "অনুম": 3314,
      "সুতরাং": 3315,
      "সহিত": 3316,
      "এমনি": 3317,
      "আসা": 3318,
      "##াপ্ত": 3319,
      "##ic": 3320,
      "উঠেছে": 3321,
      "পড়েছে": 3322,
      "বুকের": 3323,
      "গুণ": 3324,
      "মেয়ের": 3325,
      "সিগারে": 3326,
      "##০০": 3327,
      "##ঢ়": 3328,
      "সকালে": 3329,
      "প্রার্থ": 3330,
      "নিশ্চয়ই": 3331,
      "সুল": 3332,
      "জায়গায়": 3333,
      "এসো": 3334,
      "নিয়": 3335,
      "রক্ষা": 3336,
      "কাগজ": 3337,
      "মোট": 3338,
      "আল্লাহ্": 3339,
      "বাকি": 3340,
      "##গ্ধ": 3341,
      "##ধন": 3342,
      "##id": 3343,
      "মিস": 3344,
      "হর": 3345,
      "re": 3346,
      "##তান": 3347,
      "##িজ": 3348,
      "##িনীর": 3349,
      "বেদ": 3350,
      "##াসী": 3351,
      "##ুত্ব": 3352,
      "হু": 3353,
      "জয়": 3354,
      "##ম্ভীর": 3355,
      "ভাবতে": 3356,
      "তাড়": 3357,
      "##gh": 3358,
      "##ব্র": 3359,
      "বিধ": 3360,
      "ছাড়া": 3361,
      "##ad": 3362,
      "##দৃ": 3363,
      "বেড়": 3364,
      "ঘন": 3365,
      "প্ৰ": 3366,
      "ব্রাহ্ম": 3367,
      "পেতে": 3368,
      "ডান": 3369,
      "আঙ": 3370,
      "##স্প": 3371,
      "খেলা": 3372,
      "##কর্ম": 3373,
      "দাঁড়াল": 3374,
      "জ্বল": 3375,
      "##ow": 3376,
      "উঠতে": 3377,
      "সরে": 3378,
      "##ণ্ডা": 3379,
      "চান": 3380,
      "মরে": 3381,
      "##যা": 3382,
      "জেনে": 3383,
      "##্টে": 3384,
      "কৃষ্ণ": 3385,
      "ঠোঁ": 3386,
      "##st": 3387,
      "##িরের": 3388,
      "বিশাল": 3389,
      "স্টে": 3390,
      "তাহাকে": 3391,
      "প্রকৃত": 3392,
      "হেঁ": 3393,
      "##পত্র": 3394,
      "ভো": 3395,
      "##লিত": 3396,
      "যো": 3397,
      "প্রয়োজন": 3398,
      "অনুর": 3399,
      "সংস": 3400,
      "সবই": 3401,
      "আসিয়া": 3402,
      "##ালার": 3403,
      "##্রা": 3404,
      "আসার": 3405,
      "দরজার": 3406,
      "বলিতে": 3407,
      "##মত": 3408,
      "গাছের": 3409,
      "গিয়েছিল": 3410,
      "ছাড়": 3411,
      "স্বপ্ন": 3412,
      "নিজেই": 3413,
      "##জ্জা": 3414,
      "অবশ্যই": 3415,
      "##টাও": 3416,
      "##দুর": 3417,
      "বাধা": 3418,
      "বেলা": 3419,
      "লোকে": 3420,
      "প্রয়": 3421,
      "বিচার": 3422,
      "ইত্যাদি": 3423,
      "বলেছিল": 3424,
      "দায়": 3425,
      "লইয়া": 3426,
      "ট্রে": 3427,
      "কাজের": 3428,
      "##ly": 3429,
      "on": 3430,
      "আগের": 3431,
      "খর": 3432,
      "সুরে": 3433,
      "নদীর": 3434,
      "কেহ": 3435,
      "গম্ভীর": 3436,
      "##্রমণ": 3437,
      "##ষ্টি": 3438,
      "বাচ্চ": 3439,
      "হরি": 3440,
      "প্রথমে": 3441,
      "##বাবুর": 3442,
      "খোলা": 3443,
      "সেন": 3444,
      "মোটা": 3445,
      "যথ": 3446,
      "বয়": 3447,
      "##ানী": 3448,
      "ইন": 3449,
      "হয়তো": 3450,
      "সাক্ষ": 3451,
      "বিরুদ্ধে": 3452,
      "##ক্স": 3453,
      "বুকে": 3454,
      "##হর": 3455,
      "কবি": 3456,
      "১৯": 3457,
      "##বর্তী": 3458,
      "গতি": 3459,
      "তাকা": 3460,
      "##ভূত": 3461,
      "##ড়িতে": 3462,
      "লাফ": 3463,
      "who": 3464,
      "পাও": 3465,
      "##ন্স": 3466,
      "যজ্ঞ": 3467,
      "##মল": 3468,
      "চাও": 3469,
      "খাওয়া": 3470,
      "জলে": 3471,
      "##্টা": 3472,
      "পার্": 3473,
      "##ধীন": 3474,
      "খালি": 3475,
      "নিশ্চয়": 3476,
      "করলো": 3477,
      "করছিল": 3478,
      "করিলেন": 3479,
      "বৃষ্টি": 3480,
      "ম্যা": 3481,
      "##স্টার": 3482,
      "##যো": 3483,
      "মন্ত": 3484,
      "বক্ত": 3485,
      "##কল": 3486,
      "প্রণ": 3487,
      "ফে": 3488,
      "যাচ্ছি": 3489,
      "স্বাভাবিক": 3490,
      "দেখছি": 3491,
      "##য়ান": 3492,
      "চন্দ্র": 3493,
      "##চরণ": 3494,
      "মুহূর্ত": 3495,
      "খাঁ": 3496,
      "বিরক্ত": 3497,
      "মূর্ত": 3498,
      "they": 3499,
      "নির্দেশ": 3500,
      "পরিবার": 3501,
      "##ণ্য": 3502,
      "হওয়ার": 3503,
      "##হ্ন": 3504,
      "বাবু": 3505,
      "দৃশ্য": 3506,
      "কণ্ঠ": 3507,
      "ভাস": 3508,
      "১১": 3509,
      "##দর": 3510,
      "অক্ষ": 3511,
      "গুলি": 3512,
      "অগ্নি": 3513,
      "টুক": 3514,
      "যদিও": 3515,
      "পরিষ্কার": 3516,
      "এতে": 3517,
      "বীর": 3518,
      "ফর": 3519,
      "খানিকটা": 3520,
      "সকাল": 3521,
      "পরা": 3522,
      "বী": 3523,
      "কেঁ": 3524,
      "রাখে": 3525,
      "মুহূর্তে": 3526,
      "##ুপ্ত": 3527,
      "বস্তু": 3528,
      "নষ্ট": 3529,
      "অজ": 3530,
      "হলেন": 3531,
      "##্রো": 3532,
      "করবার": 3533,
      "উত্তে": 3534,
      "যেত": 3535,
      "অধিক": 3536,
      "টেবিল": 3537,
      "শাস": 3538,
      "বিষয়": 3539,
      "ভগব": 3540,
      "আশ্র": 3541,
      "পরিণ": 3542,
      "##কারী": 3543,
      "দেয়া": 3544,
      "তথা": 3545,
      "##am": 3546,
      "সোম": 3547,
      "সোজা": 3548,
      "##ধ্যে": 3549,
      "দুজনে": 3550,
      "ভেসে": 3551,
      "বিস্ত": 3552,
      "শব্": 3553,
      "that": 3554,
      "এলে": 3555,
      "দেরি": 3556,
      "শিখ": 3557,
      "##কু": 3558,
      "ভীষণ": 3559,
      "চাকরি": 3560,
      "থাকার": 3561,
      "টেলিফ": 3562,
      "সী": 3563,
      "সাল": 3564,
      "বসল": 3565,
      "একদ": 3566,
      "গরম": 3567,
      "##াক্": 3568,
      "ঘোষ": 3569,
      "সাহিত": 3570,
      "দেওয়া": 3571,
      "##তেন": 3572,
      "যাত্র": 3573,
      "সম্পর্ক": 3574,
      "উচ্চ": 3575,
      "দেবার": 3576,
      "সেল": 3577,
      "চেঁচ": 3578,
      "শ্যাম": 3579,
      "দেখলাম": 3580,
      "##দিনের": 3581,
      "প্ল": 3582,
      "দিনে": 3583,
      "কাহ": 3584,
      "##im": 3585,
      "##ষি": 3586,
      "##ce": 3587,
      "জয়": 3588,
      "##ম্ভব": 3589,
      "##ূর্বে": 3590,
      "কথার": 3591,
      "গাড়ি": 3592,
      "তাকিয়ে": 3593,
      "সামনের": 3594,
      "রু": 3595,
      "নমঃ": 3596,
      "রান্না": 3597,
      "বৌ": 3598,
      "যৌ": 3599,
      "বোধহয়": 3600,
      "সত্যিই": 3601,
      "প্রক": 3602,
      "##রূপে": 3603,
      "বাপ": 3604,
      "##নায়": 3605,
      "লাগিল": 3606,
      "##দায়": 3607,
      "##র্ট": 3608,
      "ধন্য": 3609,
      "থেমে": 3610,
      "গঙ্গ": 3611,
      "উদ্ধ": 3612,
      "নীর": 3613,
      "বিষয়": 3614,
      "##জাত": 3615,
      "দেখিতে": 3616,
      "সবার": 3617,
      "তাও": 3618,
      "##চন": 3619,
      "দাদা": 3620,
      "দিলাম": 3621,
      "জাহাজ": 3622,
      "নহে": 3623,
      "গৃহ": 3624,
      "হাসল": 3625,
      "ছেলের": 3626,
      "নির্ম": 3627,
      "##ায়া": 3628,
      "ফেলল": 3629,
      "মার্": 3630,
      "বড়ো": 3631,
      "কিছুতেই": 3632,
      "##ver": 3633,
      "কথাই": 3634,
      "তাল": 3635,
      "কারও": 3636,
      "মৃত্যুর": 3637,
      "আঘাত": 3638,
      "##াবু": 3639,
      "ব্যস্ত": 3640,
      "বদলে": 3641,
      "শী": 3642,
      "সুম": 3643,
      "ক্ষমতা": 3644,
      "যাহা": 3645,
      "##ুরা": 3646,
      "ভক্ত": 3647,
      "them": 3648,
      "সাহস": 3649,
      "এলেন": 3650,
      "##্নের": 3651,
      "##ন্থ": 3652,
      "দেখেছি": 3653,
      "লী": 3654,
      "পাতা": 3655,
      "##ানু": 3656,
      "অনুভব": 3657,
      "শুভ": 3658,
      "যথে": 3659,
      "দাম": 3660,
      "##ড়ির": 3661,
      "##বির": 3662,
      "ছাপ": 3663,
      "##র্ড": 3664,
      "বিভিন্ন": 3665,
      "বড়ো": 3666,
      "পরের": 3667,
      "##ut": 3668,
      "ال": 3669,
      "পায়ে": 3670,
      "হিন্দু": 3671,
      "##ময়": 3672,
      "মিনিট": 3673,
      "##সন": 3674,
      "পোশ": 3675,
      "উঁচু": 3676,
      "##ur": 3677,
      "##ম্বর": 3678,
      "স্বাধীন": 3679,
      "রহস্য": 3680,
      "পক্ষ": 3681,
      "ছেড়ে": 3682,
      "কুকুর": 3683,
      "টিপ": 3684,
      "জম": 3685,
      "##ent": 3686,
      "সপ্ত": 3687,
      "আলাদা": 3688,
      "খুঁজ": 3689,
      "##মুখ": 3690,
      "আমের": 3691,
      "##ত্ন": 3692,
      "ভরে": 3693,
      "উৎপ": 3694,
      "ঠা": 3695,
      "ভব": 3696,
      "##চিত্র": 3697,
      "##দূর": 3698,
      "কারো": 3699,
      "কলে": 3700,
      "এসেছিল": 3701,
      "তাড়াতা": 3702,
      "আলোচনা": 3703,
      "##য়ায়": 3704,
      "তরুণ": 3705,
      "স্বীকার": 3706,
      "##শীল": 3707,
      "সিগারেট": 3708,
      "ফোন": 3709,
      "হৈ": 3710,
      "অবি": 3711,
      "য়": 3712,
      "নন্দ": 3713,
      "##দির": 3714,
      "উই": 3715,
      "আনা": 3716,
      "টের": 3717,
      "বেঁধে": 3718,
      "ভূম": 3719,
      "##ৈঃ": 3720,
      "ক্রম": 3721,
      "এরপর": 3722,
      "##িরি": 3723,
      "বর্ত": 3724,
      "##পুরুষ": 3725,
      "কৃত": 3726,
      "তখনই": 3727,
      "##জীব": 3728,
      "প্রত্যেক": 3729,
      "অস্ব": 3730,
      "শ্ব": 3731,
      "গেলাম": 3732,
      "নীচে": 3733,
      "কবিতা": 3734,
      "তাড়াতাড়ি": 3735,
      "##ফার": 3736,
      "যাইতে": 3737,
      "জ্যো": 3738,
      "##ান্ট": 3739,
      "যিনি": 3740,
      "গুরু": 3741,
      "চমকে": 3742,
      "ঘণ্টা": 3743,
      "শহর": 3744,
      "চলেছে": 3745,
      "##কী": 3746,
      "##পার": 3747,
      "##ধর": 3748,
      "সমস্যা": 3749,
      "মৃদু": 3750,
      "গেছেন": 3751,
      "##িলি": 3752,
      "গাঁ": 3753,
      "এদিকে": 3754,
      "দেখলে": 3755,
      "১৮": 3756,
      "বাঁধ": 3757,
      "প্যা": 3758,
      "##কেও": 3759,
      "##ড়াই": 3760,
      "বছরের": 3761,
      "চতুর": 3762,
      "চাপা": 3763,
      "##oo": 3764,
      "##ধ্ব": 3765,
      "শেষে": 3766,
      "সন্তান": 3767,
      "##দায়": 3768,
      "##সঙ্গে": 3769,
      "##গার": 3770,
      "আরম্ভ": 3771,
      "##াউ": 3772,
      "হিস": 3773,
      "##শার": 3774,
      "যথেষ্ট": 3775,
      "বাড়ির": 3776,
      "##নিক": 3777,
      "গোপন": 3778,
      "অপরাধ": 3779,
      "পব": 3780,
      "ক্যা": 3781,
      "পাশের": 3782,
      "পাগল": 3783,
      "পত্র": 3784,
      "##ীপ": 3785,
      "lla": 3786,
      "##মানুষ": 3787,
      "বিরাট": 3788,
      "ha": 3789,
      "##িতার": 3790,
      "প্রস্তু": 3791,
      "পয়": 3792,
      "মহারা": 3793,
      "বিয়ে": 3794,
      "রুম": 3795,
      "পড়তে": 3796,
      "অশ": 3797,
      "অধিকার": 3798,
      "##ণ্ডিত": 3799,
      "##র্ষণ": 3800,
      "অসম্ভব": 3801,
      "কাঁপ": 3802,
      "শূন্য": 3803,
      "##শিষ্ট": 3804,
      "al": 3805,
      "তোকে": 3806,
      "##َّ": 3807,
      "দৈ": 3808,
      "লোকটি": 3809,
      "পের": 3810,
      "১২": 3811,
      "অগ্র": 3812,
      "সকলেই": 3813,
      "খেয়ে": 3814,
      "হাসতে": 3815,
      "##ন্দের": 3816,
      "ছাত্র": 3817,
      "ছাড়": 3818,
      "পাখি": 3819,
      "an": 3820,
      "টাই": 3821,
      "হওয়া": 3822,
      "বলেছি": 3823,
      "পিছনে": 3824,
      "জলের": 3825,
      "##জু": 3826,
      "ছোট্ট": 3827,
      "লজ্জা": 3828,
      "এভাবে": 3829,
      "তাঁদের": 3830,
      "##ুল্লাহ": 3831,
      "গ্রাম": 3832,
      "পরিবর্ত": 3833,
      "##বিষ্য": 3834,
      "ব্যক্ত": 3835,
      "মানব": 3836,
      "nd": 3837,
      "স্বরে": 3838,
      "##ড়ায়": 3839,
      "ভ্র": 3840,
      "করিবার": 3841,
      "ধারে": 3842,
      "মায়ের": 3843,
      "with": 3844,
      "আসল": 3845,
      "অন্ধকারে": 3846,
      "##িতেছে": 3847,
      "বুল": 3848,
      "কুম": 3849,
      "##ুতি": 3850,
      "জঙ্গ": 3851,
      "##ফা": 3852,
      "ভাত": 3853,
      "দ্যা": 3854,
      "পৃথিবী": 3855,
      "প্রভু": 3856,
      "অন্তত": 3857,
      "চিন্ত": 3858,
      "মাথায়": 3859,
      "নাও": 3860,
      "##০১": 3861,
      "হইলে": 3862,
      "##াবা": 3863,
      "জোরে": 3864,
      "আছ": 3865,
      "পেলে": 3866,
      "##ওয়": 3867,
      "ঢাকা": 3868,
      "##লায়": 3869,
      "অন্যান্য": 3870,
      "##িতি": 3871,
      "অহ": 3872,
      "##এব": 3873,
      "রাজার": 3874,
      "বুদ্ধি": 3875,
      "সাহেবের": 3876,
      "দোকান": 3877,
      "##োদ": 3878,
      "##ান্তর": 3879,
      "ঘে": 3880,
      "বর্ণনা": 3881,
      "সর্": 3882,
      "##টকে": 3883,
      "উপায়": 3884,
      "it": 3885,
      "সবচেয়ে": 3886,
      "ধারণ": 3887,
      "অতএব": 3888,
      "খোঁজ": 3889,
      "তথ": 3890,
      "ভারী": 3891,
      "##াতেই": 3892,
      "অঙ্গ": 3893,
      "পরীক্ষা": 3894,
      "not": 3895,
      "##জায়": 3896,
      "##রব": 3897,
      "##ِي": 3898,
      "নিশ্চিত": 3899,
      "ভবিষ্য": 3900,
      "##ক্ষণে": 3901,
      "অস্ত্র": 3902,
      "##ব্ধ": 3903,
      "কবে": 3904,
      "নিরাপ": 3905,
      "##চন্দ্র": 3906,
      "খাই": 3907,
      "##িত্য": 3908,
      "##িমান": 3909,
      "পোশাক": 3910,
      "দিব": 3911,
      "আজকাল": 3912,
      "##জ্ঞা": 3913,
      "llah": 3914,
      "দ্বিতীয়": 3915,
      "যাঁ": 3916,
      "##চক": 3917,
      "##শ্বরের": 3918,
      "##িয়েছে": 3919,
      "তী": 3920,
      "পূর্বে": 3921,
      "অসুবি": 3922,
      "হচ্ছিল": 3923,
      "বিপদ": 3924,
      "যাকে": 3925,
      "শোন": 3926,
      "মৃত": 3927,
      "##িসি": 3928,
      "সংসার": 3929,
      "কাক": 3930,
      "হতো": 3931,
      "##ফের": 3932,
      "রয়ে": 3933,
      "মুসার": 3934,
      "মুর": 3935,
      "বেরিয়ে": 3936,
      "##মশ": 3937,
      "বিবে": 3938,
      "##ঙ্কর": 3939,
      "জেগে": 3940,
      "সত্ত": 3941,
      "পায়ের": 3942,
      "সুবি": 3943,
      "এঁ": 3944,
      "পাথর": 3945,
      "মানুষকে": 3946,
      "শিল্প": 3947,
      "ওঁর": 3948,
      "অশ্ব": 3949,
      "পাব": 3950,
      "চুম": 3951,
      "##জান": 3952,
      "১৩": 3953,
      "##পুরে": 3954,
      "##শেষে": 3955,
      "দুল": 3956,
      "লাগবে": 3957,
      "##ান্তে": 3958,
      "ক্ষতি": 3959,
      "শত্রু": 3960,
      "বলেছিলেন": 3961,
      "রাজি": 3962,
      "সেনা": 3963,
      "আন্দ": 3964,
      "বলছেন": 3965,
      "##কিছ": 3966,
      "বাতাস": 3967,
      "##হাকে": 3968,
      "বক": 3969,
      "ভয়ে": 3970,
      "গিয়া": 3971,
      "##মর": 3972,
      "এইসব": 3973,
      "কোন্": 3974,
      "বাইরের": 3975,
      "##চ্চার": 3976,
      "##োঽ": 3977,
      "##ষ্ট্র": 3978,
      "##োতে": 3979,
      "##িয়ার": 3980,
      "ক্লান্ত": 3981,
      "##জ্জ্বল": 3982,
      "চমৎকার": 3983,
      "##্যাব": 3984,
      "##ُو": 3985,
      "উঠিল": 3986,
      "হইয়াছে": 3987,
      "দেবেন": 3988,
      "গেলো": 3989,
      "মূল্য": 3990,
      "##থর": 3991,
      "করেনি": 3992,
      "এসেছেন": 3993,
      "পশ্চিম": 3994,
      "বিছান": 3995,
      "##নকে": 3996,
      "##মেষ": 3997,
      "জ্বাল": 3998,
      "রাত্রে": 3999,
      "##গণের": 4000,
      "যাচ্ছিল": 4001,
      "কথায়": 4002,
      "পারছে": 4003,
      "কিছুটা": 4004,
      "নিচু": 4005,
      "চাম": 4006,
      "দেখার": 4007,
      "রাই": 4008,
      "কিনে": 4009,
      "##li": 4010,
      "##সেস": 4011,
      "বয়স": 4012,
      "কৌত": 4013,
      "শহরে": 4014,
      "প্রজ": 4015,
      "পৃথিবীতে": 4016,
      "##্লো": 4017,
      "যাবেন": 4018,
      "করতেন": 4019,
      "##োটা": 4020,
      "##গকে": 4021,
      "##ra": 4022,
      "মাটিতে": 4023,
      "আবে": 4024,
      "উভ": 4025,
      "কুর": 4026,
      "মাঝখানে": 4027,
      "রাজন": 4028,
      "পড়া": 4029,
      "চারি": 4030,
      "##স্পর": 4031,
      "##ক্ট": 4032,
      "অভাব": 4033,
      "কাব": 4034,
      "পর্ব": 4035,
      "##মকে": 4036,
      "প্রাচীন": 4037,
      "বাজে": 4038,
      "##ডার": 4039,
      "পরিচয়": 4040,
      "ঠাণ্ডা": 4041,
      "##দাস": 4042,
      "##শুর": 4043,
      "##স্র": 4044,
      "প্রব": 4045,
      "সত": 4046,
      "নিত্য": 4047,
      "বিষয়ে": 4048,
      "ঘোড়া": 4049,
      "নাড়": 4050,
      "দ্বি": 4051,
      "as": 4052,
      "বুড়ো": 4053,
      "##ময়": 4054,
      "সমান": 4055,
      "##সু": 4056,
      "গুল": 4057,
      "বাধ্য": 4058,
      "নির্ভ": 4059,
      "##ামীর": 4060,
      "সকলে": 4061,
      "##োনো": 4062,
      "##স্থান": 4063,
      "##ee": 4064,
      "##দেশের": 4065,
      "ভাষা": 4066,
      "দুর্বল": 4067,
      "প্রস্ত": 4068,
      "পাচ্ছে": 4069,
      "তখনও": 4070,
      "##কিল": 4071,
      "গ্রামের": 4072,
      "##যে": 4073,
      "পারলে": 4074,
      "রঙের": 4075,
      "মুক্তি": 4076,
      "বাহির": 4077,
      "হাঁটতে": 4078,
      "##স্তু": 4079,
      "##্যায়": 4080,
      "চলবে": 4081,
      "কণ্ঠে": 4082,
      "তীব": 4083,
      "শহরের": 4084,
      "মোহ": 4085,
      "##ght": 4086,
      "টেলিফোন": 4087,
      "পবিত্র": 4088,
      "ত্যাগ": 4089,
      "পরেই": 4090,
      "পড়ল": 4091,
      "ডা": 4092,
      "স্থা": 4093,
      "কার্য": 4094,
      "মেঝ": 4095,
      "ভিন্ন": 4096,
      "টাকার": 4097,
      "খি": 4098,
      "##ছাড়া": 4099,
      "##র্ব": 4100,
      "তৃত": 4101,
      "প্রা": 4102,
      "মেনে": 4103,
      "মাকে": 4104,
      "চলছে": 4105,
      "##ণ্ঠ": 4106,
      "নজর": 4107,
      "স্বভাব": 4108,
      "কাঁচ": 4109,
      "করুণ": 4110,
      "টা": 4111,
      "মিথ্যা": 4112,
      "মস্ত": 4113,
      "ভগবান": 4114,
      "জর": 4115,
      "তৎ": 4116,
      "সদ": 4117,
      "রং": 4118,
      "অসহ": 4119,
      "গুরুত্ব": 4120,
      "তাহাদের": 4121,
      "হাই": 4122,
      "মৌ": 4123,
      "ওঠ": 4124,
      "##িস্ত": 4125,
      "##্তে": 4126,
      "দিয়া": 4127,
      "হুঁ": 4128,
      "##খ্যাত": 4129,
      "will": 4130,
      "মহিলা": 4131,
      "দিদি": 4132,
      "অবস্থায়": 4133,
      "ঝুঁ": 4134,
      "ঠিকই": 4135,
      "তাঁরা": 4136,
      "##ণীর": 4137,
      "##নির": 4138,
      "##স্ত্র": 4139,
      "##ld": 4140,
      "আক্রমণ": 4141,
      "##ri": 4142,
      "প্রয়োজন": 4143,
      "##ak": 4144,
      "কাছাকা": 4145,
      "শুনেছি": 4146,
      "##um": 4147,
      "জড়িয়ে": 4148,
      "বাস্ত": 4149,
      "দেবতা": 4150,
      "পুরুষের": 4151,
      "##ষ্প": 4152,
      "পাথরের": 4153,
      "##হাদের": 4154,
      "বেশী": 4155,
      "মিলে": 4156,
      "##ল্ল": 4157,
      "##ংসা": 4158,
      "##ছো": 4159,
      "##মন্ত": 4160,
      "শরীরে": 4161,
      "হত্যা": 4162,
      "সম্প্র": 4163,
      "##ড়ো": 4164,
      "যথা": 4165,
      "প্রার্থনা": 4166,
      "চোর": 4167,
      "##্লেখ": 4168,
      "রক্ষ": 4169,
      "কাছাকাছি": 4170,
      "সহ্য": 4171,
      "##বর্ষ": 4172,
      "আকাশে": 4173,
      "শেখ": 4174,
      "তীব্র": 4175,
      "শিক্ষা": 4176,
      "শরীরের": 4177,
      "সন": 4178,
      "রাতের": 4179,
      "দাস": 4180,
      "বলিয়া": 4181,
      "অনন্ত": 4182,
      "প্রচণ্ড": 4183,
      "##ড়ার": 4184,
      "আগ্রহ": 4185,
      "যুগ": 4186,
      "হেঁটে": 4187,
      "##সময়": 4188,
      "দেখিয়ে": 4189,
      "##জী": 4190,
      "##ান্ধ": 4191,
      "ছিলাম": 4192,
      "তীর": 4193,
      "দিচ্ছি": 4194,
      "হিম": 4195,
      "ইহার": 4196,
      "লাগলেন": 4197,
      "মদ": 4198,
      "ছোটো": 4199,
      "##ৃত্য": 4200,
      "মালিক": 4201,
      "যাওয়া": 4202,
      "মুখো": 4203,
      "চলল": 4204,
      "খাবে": 4205,
      "ধ্বংস": 4206,
      "পরস্পর": 4207,
      "দক্ষিণ": 4208,
      "গোটা": 4209,
      "মাস্টার": 4210,
      "সীম": 4211,
      "মাটি": 4212,
      "আবি": 4213,
      "পেছন": 4214,
      "ম্য": 4215,
      "##ভূতি": 4216,
      "কুল": 4217,
      "সংবাদ": 4218,
      "সন্ধ্য": 4219,
      "দুধ": 4220,
      "ছড়িয়ে": 4221,
      "##ড়ের": 4222,
      "বয়ে": 4223,
      "মোর": 4224,
      "ক্যাম": 4225,
      "বর্": 4226,
      "সবকিছ": 4227,
      "##দর্শন": 4228,
      "চিহ্ন": 4229,
      "উল্লেখ": 4230,
      "আলি": 4231,
      "শান্তি": 4232,
      "##বর্": 4233,
      "বাচ্চা": 4234,
      "দিই": 4235,
      "অনেকটা": 4236,
      "বাঁধা": 4237,
      "##ঞ্জন": 4238,
      "মেয়ের": 4239,
      "নাচ": 4240,
      "##াতের": 4241,
      "লোকজন": 4242,
      "দেখুন": 4243,
      "তৃ": 4244,
      "are": 4245,
      "ভোগ": 4246,
      "##ন্টার": 4247,
      "গায়ে": 4248,
      "সাঁ": 4249,
      "পত": 4250,
      "রম": 4251,
      "##ৈত": 4252,
      "হাম": 4253,
      "##ঞ্চল": 4254,
      "ইসলাম": 4255,
      "অনেকক্ষণ": 4256,
      "##ডন": 4257,
      "##মাস": 4258,
      "পারেনি": 4259,
      "ফ্ল": 4260,
      "ফুটে": 4261,
      "চলতে": 4262,
      "উৎসা": 4263,
      "##খল": 4264,
      "##দৃশ্য": 4265,
      "##টন": 4266,
      "##াদি": 4267,
      "হয়েছিল": 4268,
      "ধন্যবাদ": 4269,
      "ধাক্": 4270,
      "সোনার": 4271,
      "দেখিয়া": 4272,
      "যাদের": 4273,
      "##গুণ": 4274,
      "##কুমার": 4275,
      "কীভাবে": 4276,
      "চিনতে": 4277,
      "চলো": 4278,
      "##ষুধ": 4279,
      "কপা": 4280,
      "ফি": 4281,
      "##ওয়": 4282,
      "##শব": 4283,
      "পিতা": 4284,
      "দুর্গ": 4285,
      "সৎ": 4286,
      "##ানন্দ": 4287,
      "দীপ": 4288,
      "রাস্তায়": 4289,
      "যুবক": 4290,
      "##িসে": 4291,
      "ডাল": 4292,
      "##টিং": 4293,
      "লক্ষ্ম": 4294,
      "##াবর": 4295,
      "প্রস্তুত": 4296,
      "##ct": 4297,
      "দেখো": 4298,
      "স্বামীর": 4299,
      "ভোর": 4300,
      "##সিক": 4301,
      "এতদিন": 4302,
      "##দীপ": 4303,
      "স্মৃতি": 4304,
      "মেয়েটি": 4305,
      "##০২": 4306,
      "স্ন": 4307,
      "এটাই": 4308,
      "##পথ": 4309,
      "তাহারা": 4310,
      "##ট্র": 4311,
      "ব্যথা": 4312,
      "কাজেই": 4313,
      "আলাপ": 4314,
      "প্রবল": 4315,
      "জগত": 4316,
      "উঠলেন": 4317,
      "##গু": 4318,
      "সবুজ": 4319,
      "##কালের": 4320,
      "আওয়া": 4321,
      "##রত": 4322,
      "বিবাহ": 4323,
      "রাস্তার": 4324,
      "মাহ": 4325,
      "রাসূল": 4326,
      "প্রিয়": 4327,
      "ধরতে": 4328,
      "##সূ": 4329,
      "##িপ্ত": 4330,
      "মাধ্য": 4331,
      "রিক": 4332,
      "সিদ্ধান্ত": 4333,
      "fr": 4334,
      "ঝুল": 4335,
      "##র্প": 4336,
      "গোঁ": 4337,
      "গল": 4338,
      "প্রতিটি": 4339,
      "##খো": 4340,
      "তারই": 4341,
      "শির": 4342,
      "##চাপ": 4343,
      "##িসের": 4344,
      "রেখেছে": 4345,
      "অভিজ্ঞ": 4346,
      "ক্ষমা": 4347,
      "##ন্দন": 4348,
      "কাণ্ড": 4349,
      "চিত্র": 4350,
      "ওয়": 4351,
      "ব্রাহ্মণ": 4352,
      "স্থানে": 4353,
      "চট": 4354,
      "##ানির": 4355,
      "স্ত্র": 4356,
      "একসঙ্গে": 4357,
      "কথাবার": 4358,
      "মাটির": 4359,
      "হেল": 4360,
      "##ess": 4361,
      "ক্ষেত্রে": 4362,
      "##ভাবেই": 4363,
      "দারুণ": 4364,
      "আফ": 4365,
      "##ব্দে": 4366,
      "মেল": 4367,
      "##রিক": 4368,
      "##দ্ধা": 4369,
      "বাম": 4370,
      "আকাশের": 4371,
      "##্রান্ত": 4372,
      "বসিয়া": 4373,
      "দাঁত": 4374,
      "শিক": 4375,
      "ঈশ্বরের": 4376,
      "আঁচ": 4377,
      "প্য": 4378,
      "দুপুর": 4379,
      "তারপরে": 4380,
      "##াগুলো": 4381,
      "##ন্দ্রনাথ": 4382,
      "উন্ন": 4383,
      "মাধ": 4384,
      "##ক্ষ্ম": 4385,
      "একথা": 4386,
      "পড়ছে": 4387,
      "আঙুল": 4388,
      "ইতিহাস": 4389,
      "উজ্জ্বল": 4390,
      "ধরল": 4391,
      "বন্ড": 4392,
      "উপল": 4393,
      "দর্শন": 4394,
      "ব্ল": 4395,
      "চক": 4396,
      "দ্বিতীয়": 4397,
      "সরিয়ে": 4398,
      "বাড়িয়ে": 4399,
      "ফো": 4400,
      "কির": 4401,
      "নইলে": 4402,
      "ওষুধ": 4403,
      "হয়নি": 4404,
      "পাঠিয়ে": 4405,
      "##মো": 4406,
      "##তল": 4407,
      "মূর্তি": 4408,
      "##জনক": 4409,
      "সম্ভাব": 4410,
      "সুলতান": 4411,
      "মাঠ": 4412,
      "নারীর": 4413,
      "অফিসার": 4414,
      "পরিচিত": 4415,
      "করিবে": 4416,
      "##ীদ": 4417,
      "বেড়": 4418,
      "কন্যা": 4419,
      "বৃহ": 4420,
      "##ফে": 4421,
      "##نَ": 4422,
      "দৃষ্টিতে": 4423,
      "বর্ষ": 4424,
      "##ভের": 4425,
      "টাক": 4426,
      "দিত": 4427,
      "ভাঙা": 4428,
      "##মক": 4429,
      "জগৎ": 4430,
      "স্পর্শ": 4431,
      "##নু": 4432,
      "বেগ": 4433,
      "সবাইকে": 4434,
      "সময়ে": 4435,
      "চুরি": 4436,
      "মূ": 4437,
      "##ছিস": 4438,
      "বোন": 4439,
      "পাত্র": 4440,
      "গণ": 4441,
      "##ড্ড": 4442,
      "##ষ্ঠান": 4443,
      "সম্ভবত": 4444,
      "নাক": 4445,
      "জন্যই": 4446,
      "নান": 4447,
      "##্ক": 4448,
      "অনিমেষ": 4449,
      "##জ্ঞে": 4450,
      "আপত্তি": 4451,
      "আমায়": 4452,
      "প্রকা": 4453,
      "##িং": 4454,
      "##ান্ন": 4455,
      "##গান": 4456,
      "কল্পনা": 4457,
      "বিন্দ": 4458,
      "##স্তা": 4459,
      "মাংস": 4460,
      "মজ": 4461,
      "##কৃষ্ণ": 4462,
      "কাত": 4463,
      "উচ্চার": 4464,
      "সুন": 4465,
      "নেয়": 4466,
      "ভঙ্গিতে": 4467,
      "##তেও": 4468,
      "শাস্তি": 4469,
      "খরচ": 4470,
      "##ূপে": 4471,
      "##মধ্যে": 4472,
      "প্রাপ্ত": 4473,
      "মম": 4474,
      "##শান": 4475,
      "##চ্য": 4476,
      "##ায়া": 4477,
      "##ুৎ": 4478,
      "##বিক": 4479,
      "##ৈতিক": 4480,
      "দ্বার": 4481,
      "পারো": 4482,
      "যোগা": 4483,
      "##িমা": 4484,
      "মের": 4485,
      "ভাগ্য": 4486,
      "সাং": 4487,
      "##টল": 4488,
      "পেলাম": 4489,
      "আদি": 4490,
      "##ঙ্কার": 4491,
      "বর্তমান": 4492,
      "হুম": 4493,
      "##ড়িতে": 4494,
      "স্নে": 4495,
      "##গুলির": 4496,
      "বিষ্ণ": 4497,
      "টুকরো": 4498,
      "অ্য": 4499,
      "##দ্ম": 4500,
      "চাইল": 4501,
      "##ন্যাস": 4502,
      "##ৎসর": 4503,
      "##ষ্ক": 4504,
      "পণ্ডিত": 4505,
      "এগিয়ে": 4506,
      "##িলার": 4507,
      "##ভাস": 4508,
      "ড্রাই": 4509,
      "গাল": 4510,
      "অপ্র": 4511,
      "আল্লাহর": 4512,
      "মহারাজ": 4513,
      "চক্ষ": 4514,
      "উদ্য": 4515,
      "sa": 4516,
      "##স্বরে": 4517,
      "অস্থ": 4518,
      "##ন্তি": 4519,
      "ঘৃ": 4520,
      "##ধর্ম": 4521,
      "অপমান": 4522,
      "ইংরেজ": 4523,
      "গুপ্ত": 4524,
      "ডো": 4525,
      "সমর্থ": 4526,
      "নামিয়ে": 4527,
      "হোট": 4528,
      "রবি": 4529,
      "পরিবর্তন": 4530,
      "আনতে": 4531,
      "দিব্য": 4532,
      "ছোঁ": 4533,
      "মতোই": 4534,
      "রয়েছে": 4535,
      "وَ": 4536,
      "প্রভৃতি": 4537,
      "পাখ": 4538,
      "##ডের": 4539,
      "##ুনের": 4540,
      "পারবেন": 4541,
      "লোকদের": 4542,
      "##তায়": 4543,
      "##ুকের": 4544,
      "১৫": 4545,
      "পারত": 4546,
      "লোকটার": 4547,
      "দিয়েছে": 4548,
      "এক্ষ": 4549,
      "##মহ": 4550,
      "মেয়েদের": 4551,
      "নূত": 4552,
      "##হত": 4553,
      "##টিক": 4554,
      "দেয়া": 4555,
      "ক্যাপ": 4556,
      "পরিক": 4557,
      "তপ": 4558,
      "##ta": 4559,
      "আসুন": 4560,
      "##দো": 4561,
      "##িলাম": 4562,
      "অর": 4563,
      "নেবে": 4564,
      "##বৃত্ত": 4565,
      "কপালে": 4566,
      "সন্ধ্যা": 4567,
      "স্য": 4568,
      "হুক": 4569,
      "বলবেন": 4570,
      "দায়িত্ব": 4571,
      "##ro": 4572,
      "ভারি": 4573,
      "##ার্ম": 4574,
      "##ছিলে": 4575,
      "##ch": 4576,
      "গলার": 4577,
      "ঘোর": 4578,
      "স্ত্রীর": 4579,
      "চেহার": 4580,
      "পরিচয়": 4581,
      "from": 4582,
      "##বোধ": 4583,
      "##হাই": 4584,
      "##স্ফ": 4585,
      "লু": 4586,
      "গ্রে": 4587,
      "বজ": 4588,
      "##ঙা": 4589,
      "পথের": 4590,
      "##্রাম": 4591,
      "হারিয়ে": 4592,
      "১৪": 4593,
      "উপায়": 4594,
      "চেনা": 4595,
      "##ুমাত্র": 4596,
      "##োক্ত": 4597,
      "সাহিত্য": 4598,
      "দুজনের": 4599,
      "de": 4600,
      "গির": 4601,
      "জানিয়ে": 4602,
      "এম": 4603,
      "রথ": 4604,
      "কম্প": 4605,
      "##ষ্টির": 4606,
      "পালন": 4607,
      "##কির": 4608,
      "অফিসে": 4609,
      "ঠোঁট": 4610,
      "নূতন": 4611,
      "ফিরিয়ে": 4612,
      "উঠছে": 4613,
      "গ্ল": 4614,
      "their": 4615,
      "##শয়": 4616,
      "সার্": 4617,
      "আদেশ": 4618,
      "কাঠের": 4619,
      "থাকত": 4620,
      "##তাপ": 4621,
      "##মতো": 4622,
      "পরিণত": 4623,
      "##বাদী": 4624,
      "চরিত্র": 4625,
      "নন": 4626,
      "দেবী": 4627,
      "##িলে": 4628,
      "বিজ্ঞান": 4629,
      "ঢাক": 4630,
      "পার্থ": 4631,
      "মুসলিম": 4632,
      "কয়েকটা": 4633,
      "মিথ্যে": 4634,
      "রও": 4635,
      "সম্মান": 4636,
      "অনুরোধ": 4637,
      "##ীরাম": 4638,
      "আওয়াজ": 4639,
      "রিপ": 4640,
      "##সেন": 4641,
      "প্রকৃতি": 4642,
      "অসুখ": 4643,
      "##un": 4644,
      "কহিলেন": 4645,
      "##সুম": 4646,
      "##ার্স": 4647,
      "##যু": 4648,
      "all": 4649,
      "##চ্ছন্ন": 4650,
      "মিসেস": 4651,
      "##সো": 4652,
      "##মিত": 4653,
      "##ose": 4654,
      "##িক্ত": 4655,
      "প্রচুর": 4656,
      "চাকর": 4657,
      "ভরা": 4658,
      "জানাল": 4659,
      "##কদের": 4660,
      "বিচিত্র": 4661,
      "##ers": 4662,
      "মিন": 4663,
      "##টায়": 4664,
      "কীর": 4665,
      "শিশু": 4666,
      "উদ্ধার": 4667,
      "জন্": 4668,
      "##োয়": 4669,
      "হৃদয়": 4670,
      "নরম": 4671,
      "গিয়া": 4672,
      "##শব্দে": 4673,
      "আইন": 4674,
      "মাইল": 4675,
      "তব": 4676,
      "##ঘরে": 4677,
      "বিদ্র": 4678,
      "একখানা": 4679,
      "চারদিকে": 4680,
      "ময়": 4681,
      "গোপ": 4682,
      "##াতন": 4683,
      "##ath": 4684,
      "##মির": 4685,
      "নরে": 4686,
      "পালিয়ে": 4687,
      "কৈ": 4688,
      "পর্": 4689,
      "##খানেই": 4690,
      "খাওয়া": 4691,
      "খেলে": 4692,
      "ব্যাখ্যা": 4693,
      "##গুলোকে": 4694,
      "চিকি": 4695,
      "অমন": 4696,
      "##ডা": 4697,
      "কর্তব্য": 4698,
      "দেখেই": 4699,
      "পাচ্ছি": 4700,
      "অন্তর": 4701,
      "দিয়েছেন": 4702,
      "##পরি": 4703,
      "##াসি": 4704,
      "##মাল": 4705,
      "করিয়ে": 4706,
      "সেরে": 4707,
      "প্রকার": 4708,
      "দাগ": 4709,
      "করেছ": 4710,
      "হওয়া": 4711,
      "নিউ": 4712,
      "##করা": 4713,
      "জেনার": 4714,
      "সেও": 4715,
      "তত্ত্ব": 4716,
      "##িন্ত": 4717,
      "সের": 4718,
      "##দিষ্ট": 4719,
      "অবস্থান": 4720,
      "##াৎ": 4721,
      "কিভাবে": 4722,
      "গেছি": 4723,
      "টেবিলের": 4724,
      "অন্ন": 4725,
      "আড়": 4726,
      "##০৩": 4727,
      "আনি": 4728,
      "পুরনো": 4729,
      "##গাছ": 4730,
      "##ংকর": 4731,
      "পনের": 4732,
      "li": 4733,
      "নাগ": 4734,
      "##ায়ী": 4735,
      "জায়গ": 4736,
      "এলাম": 4737,
      "##ণ্ডে": 4738,
      "তারি": 4739,
      "কাজটা": 4740,
      "আমিই": 4741,
      "##র্জ": 4742,
      "##ুবে": 4743,
      "লজ্জ": 4744,
      "##লেক": 4745,
      "হাজির": 4746,
      "মেঝে": 4747,
      "প্রদান": 4748,
      "##াত্": 4749,
      "বারবার": 4750,
      "##াস্থ": 4751,
      "হ্যারি": 4752,
      "বাক্য": 4753,
      "##চ্ছেন": 4754,
      "কাপড়": 4755,
      "চুপচাপ": 4756,
      "নিশ্চয়ই": 4757,
      "ভাবল": 4758,
      "হলেই": 4759,
      "ছেলেমে": 4760,
      "কিছুদিন": 4761,
      "লড়াই": 4762,
      "##জ্য": 4763,
      "খাদ": 4764,
      "##্বর": 4765,
      "have": 4766,
      "মিষ্টি": 4767,
      "##রণের": 4768,
      "##শল": 4769,
      "দলের": 4770,
      "আজও": 4771,
      "বাবাকে": 4772,
      "##ৃতা": 4773,
      "##শোর": 4774,
      "ধাক্কা": 4775,
      "আবু": 4776,
      "ডাকে": 4777,
      "আসেন": 4778,
      "স্বর্গ": 4779,
      "কল্যা": 4780,
      "মতে": 4781,
      "ভারতবর্ষ": 4782,
      "মনুষ": 4783,
      "জায়গা": 4784,
      "##লাল": 4785,
      "পরদিন": 4786,
      "ন্যায়": 4787,
      "দেখলেন": 4788,
      "ব্রি": 4789,
      "দিয়েছিল": 4790,
      "জেল": 4791,
      "অক": 4792,
      "হস্ত": 4793,
      "পেয়েছে": 4794,
      "আটকে": 4795,
      "ক্ষুদ্র": 4796,
      "##বিলে": 4797,
      "ঝাঁপ": 4798,
      "অং": 4799,
      "সুন্দরী": 4800,
      "##hi": 4801,
      "বিক্রি": 4802,
      "তথ্য": 4803,
      "উঠলো": 4804,
      "চিনি": 4805,
      "পিঠে": 4806,
      "ঘিরে": 4807,
      "হুকুম": 4808,
      "সাপ": 4809,
      "কাছেই": 4810,
      "অভিন": 4811,
      "##য়াল": 4812,
      "যুক্তি": 4813,
      "শুয়ে": 4814,
      "##ক্য": 4815,
      "##নাম": 4816,
      "কোম্প": 4817,
      "ইবন": 4818,
      "জন্যেই": 4819,
      "##মস": 4820,
      "চেয়ার": 4821,
      "১৬": 4822,
      "গোলা": 4823,
      "##শত": 4824,
      "পেট": 4825,
      "##বরের": 4826,
      "ইচ্ছ": 4827,
      "রাত্রি": 4828,
      "বিজ্ঞ": 4829,
      "প্রস্তাব": 4830,
      "কান্না": 4831,
      "বিস্মিত": 4832,
      "প্রতী": 4833,
      "দেবত": 4834,
      "##য়ো": 4835,
      "এব": 4836,
      "জাতি": 4837,
      "রাজ্য": 4838,
      "নাহি": 4839,
      "সাধু": 4840,
      "কতক": 4841,
      "বিকে": 4842,
      "কোলে": 4843,
      "চক্র": 4844,
      "##পদ": 4845,
      "##য়ারে": 4846,
      "জগতের": 4847,
      "সঙ্গেই": 4848,
      "আহা": 4849,
      "দর্শ": 4850,
      "নেড়ে": 4851,
      "##শক্তি": 4852,
      "##বেদ": 4853,
      "কিসের": 4854,
      "ফেলতে": 4855,
      "গ্রামে": 4856,
      "সংখ্যা": 4857,
      "দলে": 4858,
      "##পুরি": 4859,
      "##্লি": 4860,
      "##ধিক": 4861,
      "নামের": 4862,
      "বিনি": 4863,
      "রবী": 4864,
      "লুকিয়ে": 4865,
      "##ter": 4866,
      "##মেন্ট": 4867,
      "##বর্ণ": 4868,
      "##ম্য": 4869,
      "কেঁদে": 4870,
      "স্মরণ": 4871,
      "কৌতূহ": 4872,
      "এতক্ষণ": 4873,
      "করিতেছে": 4874,
      "এতো": 4875,
      "ওসব": 4876,
      "দেখছে": 4877,
      "পাহাড়": 4878,
      "করেছিলাম": 4879,
      "সতী": 4880,
      "##য়ো": 4881,
      "অনুসরণ": 4882,
      "##োগা": 4883,
      "নেত": 4884,
      "করছ": 4885,
      "আবিষ্কার": 4886,
      "ঠেলে": 4887,
      "জ্বলে": 4888,
      "উৎস": 4889,
      "##ড়িয়া": 4890,
      "লোকেরা": 4891,
      "রায়": 4892,
      "রাষ্ট্র": 4893,
      "পাকিস্ত": 4894,
      "do": 4895,
      "চাঁদ": 4896,
      "##টেই": 4897,
      "##ন্টের": 4898,
      "দেখেছে": 4899,
      "##দর্শ": 4900,
      "নীরব": 4901,
      "প্রহ": 4902,
      "ord": 4903,
      "ফুর": 4904,
      "অভ্য": 4905,
      "হতা": 4906,
      "##ধানে": 4907,
      "মেয়েটা": 4908,
      "কাঁধে": 4909,
      "সঞ্চ": 4910,
      "fa": 4911,
      "ভিক্ষ": 4912,
      "##টাতে": 4913,
      "নিয়েছে": 4914,
      "শুদ্ধ": 4915,
      "মিঃ": 4916,
      "##ক্টর": 4917,
      "অবশেষে": 4918,
      "পরিকল্প": 4919,
      "##ঘর": 4920,
      "করতেই": 4921,
      "##বিন্দ": 4922,
      "বসতে": 4923,
      "অসং": 4924,
      "শুকনো": 4925,
      "১৭": 4926,
      "##্যেস": 4927,
      "ছুটি": 4928,
      "বিপর": 4929,
      "মাধ্যমে": 4930,
      "##ul": 4931,
      "অশ্র": 4932,
      "গিয়েছে": 4933,
      "রহিল": 4934,
      "##টর": 4935,
      "রাখার": 4936,
      "##সিডে": 4937,
      "ফেলেছে": 4938,
      "##ানাং": 4939,
      "শুধ": 4940,
      "তাদেরকে": 4941,
      "ফিস": 4942,
      "টেবিলে": 4943,
      "আত্মা": 4944,
      "ঘাড়": 4945,
      "এখানকার": 4946,
      "##োকার": 4947,
      "##ক্ষ্ণ": 4948,
      "ঢে": 4949,
      "পুণ": 4950,
      "##দ্দিন": 4951,
      "##নাশ": 4952,
      "থাকব": 4953,
      "ব্যাক": 4954,
      "খাত": 4955,
      "##গি": 4956,
      "ভাবনা": 4957,
      "কথাও": 4958,
      "##বরণ": 4959,
      "##ভল": 4960,
      "পরাম": 4961,
      "গাড়ির": 4962,
      "বাঙালি": 4963,
      "ফোঁ": 4964,
      "পয়": 4965,
      "মধু": 4966,
      "##্যাট": 4967,
      "##ুনিক": 4968,
      "বাহিনী": 4969,
      "##যাত্র": 4970,
      "##াস্ট": 4971,
      "##ঞ্চি": 4972,
      "##স্কৃত": 4973,
      "ছো": 4974,
      "মোটেই": 4975,
      "অতীত": 4976,
      "শ্রেষ্ঠ": 4977,
      "ধূ": 4978,
      "প্রত্যা": 4979,
      "পূজা": 4980,
      "অদৃশ্য": 4981,
      "ওদিকে": 4982,
      "##তলা": 4983,
      "##চো": 4984,
      "##ভোগ": 4985,
      "##য়াই": 4986,
      "প্রত": 4987,
      "##ন্ত্রণ": 4988,
      "তাম": 4989,
      "ক্রমে": 4990,
      "লাগলো": 4991,
      "সম্মুখে": 4992,
      "##জল": 4993,
      "শাহ": 4994,
      "##ীক": 4995,
      "##ৰ্": 4996,
      "সরল": 4997,
      "##ন্তে": 4998,
      "##ُم": 4999,
      "ইঙ্গ": 5000,
      "বিনা": 5001,
      "ছু": 5002,
      "##কুম": 5003,
      "সভ্য": 5004,
      "ক্ষু": 5005,
      "মজা": 5006,
      "##িবে": 5007,
      "পারলাম": 5008,
      "হইতেছে": 5009,
      "সহজে": 5010,
      "##ষ্ঠিত": 5011,
      "বিয়ের": 5012,
      "ছিঁ": 5013,
      "your": 5014,
      "##দেহ": 5015,
      "##বন্ধ": 5016,
      "গুঁ": 5017,
      "স্নান": 5018,
      "রীতি": 5019,
      "শব্দে": 5020,
      "কালে": 5021,
      "পুঁ": 5022,
      "প্রভাব": 5023,
      "কলকাতায়": 5024,
      "##জির": 5025,
      "তাড়": 5026,
      "##মশাই": 5027,
      "তির": 5028,
      "নির্ভর": 5029,
      "কথাবার্তা": 5030,
      "##াইন": 5031,
      "এমনকি": 5032,
      "##পাতা": 5033,
      "তিনটি": 5034,
      "শ্রীরাম": 5035,
      "বাপের": 5036,
      "##ড়ালে": 5037,
      "আনন্দে": 5038,
      "জায়গায়": 5039,
      "য়ে": 5040,
      "##কেটে": 5041,
      "##াগত": 5042,
      "un": 5043,
      "##ুরের": 5044,
      "প্রশ্নের": 5045,
      "su": 5046,
      "তিনজন": 5047,
      "##দিগের": 5048,
      "তাছাড়া": 5049,
      "ঝাম": 5050,
      "আজকের": 5051,
      "কেননা": 5052,
      "আলোর": 5053,
      "ধর্মের": 5054,
      "##ক্ষের": 5055,
      "কথায়": 5056,
      "##ফট": 5057,
      "মস": 5058,
      "সবে": 5059,
      "ফুলের": 5060,
      "প্রের": 5061,
      "কাকে": 5062,
      "বসন্ত": 5063,
      "বৎসর": 5064,
      "রওনা": 5065,
      "তেল": 5066,
      "শৈ": 5067,
      "##لَ": 5068,
      "##পূর্ব": 5069,
      "জ্বর": 5070,
      "মেলে": 5071,
      "জট": 5072,
      "নামা": 5073,
      "পাকা": 5074,
      "##ম্যান": 5075,
      "অসা": 5076,
      "উঁ": 5077,
      "টু": 5078,
      "##lie": 5079,
      "##সহ": 5080,
      "ন্যায়": 5081,
      "উদ্ব": 5082,
      "ওয়া": 5083,
      "আঁক": 5084,
      "পকেট": 5085,
      "পঞ্চাশ": 5086,
      "##্বি": 5087,
      "##ংকার": 5088,
      "করিনি": 5089,
      "এটি": 5090,
      "বিষয়ে": 5091,
      "নম্বর": 5092,
      "ট্যাক": 5093,
      "##স্বরূপ": 5094,
      "##িয়ান": 5095,
      "অস্তিত্ব": 5096,
      "মঙ্গল": 5097,
      "ক্য": 5098,
      "সেকে": 5099,
      "সৃষ্ট": 5100,
      "##ation": 5101,
      "বনে": 5102,
      "##ত্রের": 5103,
      "নবীন": 5104,
      "চিত্ত": 5105,
      "##ঘ্র": 5106,
      "পুরোপুরি": 5107,
      "মাসে": 5108,
      "সতর্ক": 5109,
      "##est": 5110,
      "বিদে": 5111,
      "জানালা": 5112,
      "পয়সা": 5113,
      "অস্থির": 5114,
      "জেনারেল": 5115,
      "দত্ত": 5116,
      "##ণ্ডল": 5117,
      "ব্যাগ": 5118,
      "শাসন": 5119,
      "স্বর": 5120,
      "বিচ": 5121,
      "শহীদ": 5122,
      "##িলের": 5123,
      "রচনা": 5124,
      "হাসান": 5125,
      "হতেই": 5126,
      "গাই": 5127,
      "এরূপ": 5128,
      "জমে": 5129,
      "ইনি": 5130,
      "প্রচার": 5131,
      "বারো": 5132,
      "খাব": 5133,
      "তুলতে": 5134,
      "তবুও": 5135,
      "##াপা": 5136,
      "##শনে": 5137,
      "প্রিয়": 5138,
      "মায়ের": 5139,
      "অসু": 5140,
      "নামক": 5141,
      "##স্পষ্ট": 5142,
      "##োধন": 5143,
      "ঝগ": 5144,
      "চিত": 5145,
      "##্রিক": 5146,
      "হালকা": 5147,
      "##ড়িয়া": 5148,
      "অঞ্চ": 5149,
      "টার": 5150,
      "##ষের": 5151,
      "সোনা": 5152,
      "পড়বে": 5153,
      "বিখ্যাত": 5154,
      "পড়েছে": 5155,
      "##হেতু": 5156,
      "সভ": 5157,
      "রহমান": 5158,
      "অবধি": 5159,
      "পুলিশের": 5160,
      "করিলে": 5161,
      "ফাঁক": 5162,
      "##ঙ্গের": 5163,
      "ঠাকুরের": 5164,
      "আস্ত": 5165,
      "##ীণ": 5166,
      "মানসিক": 5167,
      "##ge": 5168,
      "কোনোদিন": 5169,
      "হাউ": 5170,
      "সই": 5171,
      "জমা": 5172,
      "##র্মে": 5173,
      "যুদ্ধের": 5174,
      "তলায়": 5175,
      "##াবল": 5176,
      "পিস্ত": 5177,
      "লাইন": 5178,
      "খায়": 5179,
      "সেগুলো": 5180,
      "কমল": 5181,
      "##যোগ্য": 5182,
      "প্লে": 5183,
      "ঘোষণা": 5184,
      "সবকিছু": 5185,
      "ঝা": 5186,
      "##বণ": 5187,
      "##দ্ধি": 5188,
      "ব্যর্থ": 5189,
      "ঢুকল": 5190,
      "অচ": 5191,
      "পরিবারের": 5192,
      "এখ": 5193,
      "##বীর": 5194,
      "গজ": 5195,
      "ঠিকানা": 5196,
      "অনুমান": 5197,
      "ঋজু": 5198,
      "##শির": 5199,
      "বিছানায়": 5200,
      "##ংক": 5201,
      "আকর্ষণ": 5202,
      "পাহাড়ের": 5203,
      "মহে": 5204,
      "লোভ": 5205,
      "পুত": 5206,
      "ধু": 5207,
      "দরজায়": 5208,
      "নিঃশব্দে": 5209,
      "তীক্ষ্ণ": 5210,
      "মুখটা": 5211,
      "##্টো": 5212,
      "##মোহ": 5213,
      "we": 5214,
      "জুল": 5215,
      "##ড়ায়": 5216,
      "##িপি": 5217,
      "সংসারে": 5218,
      "আহত": 5219,
      "অতিক": 5220,
      "সমাজের": 5221,
      "রাসূলুল্লাহ": 5222,
      "কমে": 5223,
      "##টিয়ে": 5224,
      "আবদ": 5225,
      "##সাদ": 5226,
      "his": 5227,
      "আচার": 5228,
      "##্বেও": 5229,
      "আমেরিক": 5230,
      "সাবধান": 5231,
      "##ah": 5232,
      "যুদ্ধে": 5233,
      "এখানেই": 5234,
      "নৌকা": 5235,
      "##সিং": 5236,
      "বলছ": 5237,
      "করবো": 5238,
      "##য়েল": 5239,
      "দিলো": 5240,
      "ত্রি": 5241,
      "##মনে": 5242,
      "দেখবে": 5243,
      "পিছু": 5244,
      "তল": 5245,
      "##সম্প": 5246,
      "অবস্থায়": 5247,
      "দেওয়ার": 5248,
      "ঢেউ": 5249,
      "বংশ": 5250,
      "সির": 5251,
      "আধুনিক": 5252,
      "দ্য": 5253,
      "##শনের": 5254,
      "৷৷": 5255,
      "লক্ষণ": 5256,
      "those": 5257,
      "স্বর্ণ": 5258,
      "চৌধুর": 5259,
      "সন্ধান": 5260,
      "ঘুমিয়ে": 5261,
      "রাখল": 5262,
      "পিঠ": 5263,
      "পায়ে": 5264,
      "সৌন্দর": 5265,
      "##ab": 5266,
      "সারাদিন": 5267,
      "##্বিত": 5268,
      "বিম": 5269,
      "##গির": 5270,
      "মাসের": 5271,
      "মল": 5272,
      "জড়": 5273,
      "হিসাবে": 5274,
      "##্বার": 5275,
      "লইয়া": 5276,
      "##দ্রা": 5277,
      "এখনই": 5278,
      "হয": 5279,
      "##াকি": 5280,
      "বেড়ে": 5281,
      "কাহার": 5282,
      "নিতান্ত": 5283,
      "##ষ্ঠা": 5284,
      "##স্বর": 5285,
      "অন্তর্": 5286,
      "গ্রন্থ": 5287,
      "##াকৃত": 5288,
      "স্কুল": 5289,
      "কলকাতার": 5290,
      "চেনে": 5291,
      "উদ্দেশ্যে": 5292,
      "আজ্ঞে": 5293,
      "এদিক": 5294,
      "কাহিনী": 5295,
      "স্নেহ": 5296,
      "উচ্চারণ": 5297,
      "আসব": 5298,
      "##ীর্ণ": 5299,
      "অগ্রসর": 5300,
      "সম্ভাবনা": 5301,
      "ঘাম": 5302,
      "মুছে": 5303,
      "ভর্তি": 5304,
      "উপক": 5305,
      "##ামত": 5306,
      "##ওয়ার": 5307,
      "মামা": 5308,
      "##ِن": 5309,
      "ক্যাপ্টে": 5310,
      "সংগ": 5311,
      "কয়েকজন": 5312,
      "সেক": 5313,
      "পরবর্তী": 5314,
      "মেজ": 5315,
      "আকার": 5316,
      "##াকর": 5317,
      "স্রো": 5318,
      "##il": 5319,
      "ক্রমশ": 5320,
      "কপ": 5321,
      "উঠবে": 5322,
      "রিভল": 5323,
      "অনেকে": 5324,
      "পরাজ": 5325,
      "প্রণাম": 5326,
      "ফিল": 5327,
      "##রাতে": 5328,
      "ডাক্ত": 5329,
      "##ফিস": 5330,
      "অধিকা": 5331,
      "একদম": 5332,
      "রণ": 5333,
      "পরিত": 5334,
      "উহা": 5335,
      "দায়": 5336,
      "ছেলেকে": 5337,
      "জগতে": 5338,
      "মধুর": 5339,
      "ভয়ে": 5340,
      "প্রান্ত": 5341,
      "তাঁহাকে": 5342,
      "বললুম": 5343,
      "তাহাতে": 5344,
      "চাইতে": 5345,
      "চেঁচিয়ে": 5346,
      "অনুপ": 5347,
      "পারিনি": 5348,
      "গোর": 5349,
      "##ুনো": 5350,
      "ঘেঁ": 5351,
      "##কায়": 5352,
      "##খার": 5353,
      "তিনটে": 5354,
      "##হাত": 5355,
      "ব্ৰ": 5356,
      "##াক্ত": 5357,
      "##তন্ত্র": 5358,
      "চাহিয়া": 5359,
      "নিলেন": 5360,
      "প্রফ": 5361,
      "যোগাযোগ": 5362,
      "##ম্ম": 5363,
      "লোককে": 5364,
      "মুশ": 5365,
      "আদর": 5366,
      "সংগ্রহ": 5367,
      "##িকে": 5368,
      "##রায়": 5369,
      "##িয়াই": 5370,
      "মিস্টার": 5371,
      "প্রকৃতির": 5372,
      "ফাঁকা": 5373,
      "কাঁধ": 5374,
      "গৌর": 5375,
      "আসিয়া": 5376,
      "পড়া": 5377,
      "ঝল": 5378,
      "##াম্ম": 5379,
      "অমর": 5380,
      "ভু": 5381,
      "দাবি": 5382,
      "অসুস্থ": 5383,
      "হৃদয়": 5384,
      "ঠেক": 5385,
      "##ুমে": 5386,
      "ব্যবসা": 5387,
      "অবিশ্বাস": 5388,
      "আচরণ": 5389,
      "মরি": 5390,
      "থাকল": 5391,
      "##জনা": 5392,
      "তোরা": 5393,
      "অভিম": 5394,
      "ইম": 5395,
      "সহস্র": 5396,
      "##টেলে": 5397,
      "##ফিক": 5398,
      "ar": 5399,
      "##ণ্ডের": 5400,
      "নিষ্ঠ": 5401,
      "নৃ": 5402,
      "##লতা": 5403,
      "##্য্য": 5404,
      "বয়স": 5405,
      "##লাতে": 5406,
      "বোকা": 5407,
      "হইত": 5408,
      "ইত": 5409,
      "##িকর": 5410,
      "দৃষ্ট": 5411,
      "পেরিয়ে": 5412,
      "উত্তেজিত": 5413,
      "যতই": 5414,
      "কথাগুলো": 5415,
      "জড়": 5416,
      "##ার্ল": 5417,
      "পরামর্শ": 5418,
      "##ঙ্কা": 5419,
      "পুনর": 5420,
      "টিপে": 5421,
      "##াপে": 5422,
      "সমুদ্রের": 5423,
      "পাস": 5424,
      "ভিড়": 5425,
      "আলোক": 5426,
      "##পাশ": 5427,
      "ডিম": 5428,
      "সিঁড়ি": 5429,
      "ইয়": 5430,
      "বিছানা": 5431,
      "টুপ": 5432,
      "মনুষ্য": 5433,
      "ঘটনার": 5434,
      "তদ": 5435,
      "মুস": 5436,
      "নিঃস": 5437,
      "কলকাতা": 5438,
      "st": 5439,
      "খাম": 5440,
      "am": 5441,
      "যাবো": 5442,
      "##নাদ": 5443,
      "অমনি": 5444,
      "শব্দের": 5445,
      "##মুখি": 5446,
      "##ere": 5447,
      "অত্যা": 5448,
      "শিকার": 5449,
      "##ঙ্গা": 5450,
      "পড়ার": 5451,
      "সুস্থ": 5452,
      "ব্যক্তিগত": 5453,
      "চিঠ": 5454,
      "জাল": 5455,
      "##ত্তর": 5456,
      "##ীরের": 5457,
      "##উল": 5458,
      "হযরত": 5459,
      "ঢাল": 5460,
      "বাথর": 5461,
      "মিত্র": 5462,
      "##ঙ্খ": 5463,
      "উপদেশ": 5464,
      "মুগ্ধ": 5465,
      "চাইছে": 5466,
      "গমন": 5467,
      "মহান": 5468,
      "ক্রোধ": 5469,
      "বাগান": 5470,
      "যাত্রা": 5471,
      "খাট": 5472,
      "মশাই": 5473,
      "আচ": 5474,
      "ছেলেটা": 5475,
      "পুরোনো": 5476,
      "অদ": 5477,
      "কোটি": 5478,
      "এইরূপ": 5479,
      "মনটা": 5480,
      "অনুমতি": 5481,
      "অধ্য": 5482,
      "হব": 5483,
      "পিছন": 5484,
      "শাল": 5485,
      "বাতাসে": 5486,
      "##ভাই": 5487,
      "##বারেই": 5488,
      "অধিকাংশ": 5489,
      "অর্ধে": 5490,
      "##থের": 5491,
      "##ৈর": 5492,
      "এইভাবে": 5493,
      "রুদ্র": 5494,
      "স্বরূপ": 5495,
      "জুতো": 5496,
      "ত্ব": 5497,
      "আরাম": 5498,
      "দুপুরে": 5499,
      "##্লিশ": 5500,
      "##াত্মা": 5501,
      "কবির": 5502,
      "ডুব": 5503,
      "ঘুরিয়ে": 5504,
      "দোকানে": 5505,
      "হেন": 5506,
      "বন্ধুর": 5507,
      "করুক": 5508,
      "##লেট": 5509,
      "অচে": 5510,
      "ভক্তি": 5511,
      "বস্ত": 5512,
      "##নিষ্ঠ": 5513,
      "খাল": 5514,
      "লেখক": 5515,
      "ধোঁ": 5516,
      "##ন্দা": 5517,
      "কুসুম": 5518,
      "##ৈর্য": 5519,
      "পাণ্ড": 5520,
      "##ট্": 5521,
      "কিশোর": 5522,
      "উত্তরে": 5523,
      "##নাথের": 5524,
      "উপা": 5525,
      "উৎসাহ": 5526,
      "আর্": 5527,
      "উঠিয়া": 5528,
      "তাকালেন": 5529,
      "##উক": 5530,
      "বন্দী": 5531,
      "ঘু": 5532,
      "##ত্তা": 5533,
      "##বিদ্য": 5534,
      "রেগে": 5535,
      "কুট": 5536,
      "পাহারা": 5537,
      "##য়ন": 5538,
      "হির": 5539,
      "চাদ": 5540,
      "উঠেছিল": 5541,
      "by": 5542,
      "পানির": 5543,
      "নিমিত্ত": 5544,
      "##ূলক": 5545,
      "সীমা": 5546,
      "মুখোমুখি": 5547,
      "##তায়": 5548,
      "সেটাই": 5549,
      "সেবা": 5550,
      "চী": 5551,
      "বিরোধ": 5552,
      "নিঃশ্বাস": 5553,
      "সম্বন্ধ": 5554,
      "হেড": 5555,
      "আদর্শ": 5556,
      "##স্মা": 5557,
      "##ষ্টে": 5558,
      "চলুন": 5559,
      "আমায়": 5560,
      "##াকের": 5561,
      "কোণে": 5562,
      "##গ্রাম": 5563,
      "##াত্মক": 5564,
      "বিশ্রাম": 5565,
      "him": 5566,
      "নিখ": 5567,
      "নৌকো": 5568,
      "পরীক্ষ": 5569,
      "চলা": 5570,
      "চক্ষু": 5571,
      "নগ": 5572,
      "##মী": 5573,
      "ওরে": 5574,
      "নৈ": 5575,
      "নোট": 5576,
      "জিগ": 5577,
      "##ন্টে": 5578,
      "সিংহ": 5579,
      "গানের": 5580,
      "গাড়িতে": 5581,
      "##োষ": 5582,
      "দিকের": 5583,
      "com": 5584,
      "হাসির": 5585,
      "সত্ত্বেও": 5586,
      "ছায়া": 5587,
      "##াজিক": 5588,
      "কারা": 5589,
      "বাস্তব": 5590,
      "ঘোড়ার": 5591,
      "##ঞ্চিত": 5592,
      "পড়িয়া": 5593,
      "অনেকদিন": 5594,
      "ধরি": 5595,
      "মিলিয়ে": 5596,
      "গুরুত্বপূর্ণ": 5597,
      "যোগ্য": 5598,
      "##ায়ার": 5599,
      "জনে": 5600,
      "##ঙ্কো": 5601,
      "উন্ম": 5602,
      "##ান্তি": 5603,
      "করিব": 5604,
      "ঝর": 5605,
      "##বেষ": 5606,
      "##িনার": 5607,
      "##টারের": 5608,
      "সহসা": 5609,
      "অনেকেই": 5610,
      "জন্মে": 5611,
      "##সাম": 5612,
      "মাথাটা": 5613,
      "##সাহেব": 5614,
      "অভ্যাস": 5615,
      "##বতী": 5616,
      "তিনিই": 5617,
      "বেশির": 5618,
      "বাধ": 5619,
      "এগুলো": 5620,
      "বিনয়": 5621,
      "##তীর": 5622,
      "মধ": 5623,
      "স্বার্থ": 5624,
      "##ামাত্র": 5625,
      "##াত্ত": 5626,
      "##ভূমি": 5627,
      "##ভঙ্গ": 5628,
      "পী": 5629,
      "হবেন": 5630,
      "রসিক": 5631,
      "ইতিহ": 5632,
      "প্রিন্": 5633,
      "পরিমাণ": 5634,
      "দম": 5635,
      "বেয়ে": 5636,
      "সালে": 5637,
      "চলিয়া": 5638,
      "যেদিন": 5639,
      "অপূর্ব": 5640,
      "একজনের": 5641,
      "গ্রী": 5642,
      "কফি": 5643,
      "বেরো": 5644,
      "আশ্রয়": 5645,
      "##্বাদ": 5646,
      "পড়তে": 5647,
      "##দিগকে": 5648,
      "##বারের": 5649,
      "##শক্ত": 5650,
      "মুনি": 5651,
      "বাক্স": 5652,
      "শোনে": 5653,
      "##পিত": 5654,
      "জনের": 5655,
      "##et": 5656,
      "##ন্টা": 5657,
      "চালিয়ে": 5658,
      "ছুঁড়ে": 5659,
      "##যং": 5660,
      "আনন্দের": 5661,
      "##লাই": 5662,
      "ঐতি": 5663,
      "জামা": 5664,
      "আরেকটা": 5665,
      "ফেরে": 5666,
      "হাব": 5667,
      "ভাঁ": 5668,
      "পেটে": 5669,
      "তোদের": 5670,
      "ভাড়া": 5671,
      "মালা": 5672,
      "##ায়ের": 5673,
      "নিন": 5674,
      "প্রতাপ": 5675,
      "২০": 5676,
      "বঙ্গ": 5677,
      "পায়ের": 5678,
      "##খের": 5679,
      "রোদ": 5680,
      "দুঃখের": 5681,
      "কাগজে": 5682,
      "##বাচ": 5683,
      "অপেক্ষ": 5684,
      "একলা": 5685,
      "##গল": 5686,
      "কুয়া": 5687,
      "কটা": 5688,
      "পরিস্থিত": 5689,
      "##ণু": 5690,
      "##us": 5691,
      "##বিধ": 5692,
      "##সাই": 5693,
      "ধান": 5694,
      "##ারো": 5695,
      "পেলেন": 5696,
      "ডাই": 5697,
      "পকেটে": 5698,
      "ল্যাং": 5699,
      "ডেভি": 5700,
      "শ্বশুর": 5701,
      "গায়ের": 5702,
      "পরিকল্পনা": 5703,
      "শার": 5704,
      "শক্তির": 5705,
      "##য়ারের": 5706,
      "শৃ": 5707,
      "##ায়ণ": 5708,
      "সুখী": 5709,
      "##চারী": 5710,
      "##প্তি": 5711,
      "শ্রম": 5712,
      "স্কুলে": 5713,
      "wa": 5714,
      "যায়নি": 5715,
      "মুহূর্তের": 5716,
      "যেতেই": 5717,
      "হাওয়া": 5718,
      "পিতৃ": 5719,
      "আড়ালে": 5720,
      "ধ্র": 5721,
      "##বিন": 5722,
      "হাসে": 5723,
      "##পুত্র": 5724,
      "ফাঁকে": 5725,
      "সুক": 5726,
      "সামাজিক": 5727,
      "হইয়াছে": 5728,
      "##মানে": 5729,
      "##ঘা": 5730,
      "নিশ্বাস": 5731,
      "দৃঢ়": 5732,
      "একটুও": 5733,
      "sh": 5734,
      "দেখিনি": 5735,
      "বন্দুক": 5736,
      "বলত": 5737,
      "দাঁড়াল": 5738,
      "##ড়তে": 5739,
      "##ির্ভ": 5740,
      "##য়ং": 5741,
      "রঘ": 5742,
      "নেব": 5743,
      "সরু": 5744,
      "মণ": 5745,
      "সূত্র": 5746,
      "আলোয়": 5747,
      "ড্রাইভার": 5748,
      "ভগবানের": 5749,
      "ইব্": 5750,
      "##াতার": 5751,
      "সুই": 5752,
      "পর্য": 5753,
      "##য়ায়": 5754,
      "পশু": 5755,
      "দুর্ভ": 5756,
      "জাহাজের": 5757,
      "দিয়েছি": 5758,
      "শ্বাস": 5759,
      "থাকলেও": 5760,
      "আইউ": 5761,
      "ধরিয়া": 5762,
      "চাবি": 5763,
      "পারলেন": 5764,
      "##াবী": 5765,
      "ইংরেজি": 5766,
      "##ভিঃ": 5767,
      "খবরের": 5768,
      "আগুনের": 5769,
      "কুমার": 5770,
      "পুণ্য": 5771,
      "একেবারেই": 5772,
      "##ich": 5773,
      "সন্ধ্যার": 5774,
      "ওয়": 5775,
      "কুঁচ": 5776,
      "চাষ": 5777,
      "##ষেধ": 5778,
      "দুজনেই": 5779,
      "দখল": 5780,
      "##গোল": 5781,
      "##ফেল": 5782,
      "দেখেন": 5783,
      "কপাল": 5784,
      "মারিয়া": 5785,
      "##ৎসা": 5786,
      "দৌড়ে": 5787,
      "সর্বদা": 5788,
      "তেজ": 5789,
      "মন্দির": 5790,
      "কণ্ঠস্বর": 5791,
      "হায়": 5792,
      "অসীম": 5793,
      "উপাস": 5794,
      "যন্ত্রণা": 5795,
      "##সান": 5796,
      "২১": 5797,
      "দণ্ড": 5798,
      "খেয়াল": 5799,
      "আমারও": 5800,
      "##হরণ": 5801,
      "ফিসফিস": 5802,
      "কুঁ": 5803,
      "sha": 5804,
      "##ভো": 5805,
      "ঘটেছে": 5806,
      "##ight": 5807,
      "যেহেতু": 5808,
      "গাম": 5809,
      "ক্রি": 5810,
      "সমগ্র": 5811,
      "হওয়ার": 5812,
      "মার্ক": 5813,
      "ay": 5814,
      "##রাই": 5815,
      "খাওয়ার": 5816,
      "##ঘরের": 5817,
      "প্রতিদিন": 5818,
      "##ঠিক": 5819,
      "বুঝিতে": 5820,
      "ভাষায়": 5821,
      "বয়সে": 5822,
      "ডুবে": 5823,
      "মাঠে": 5824,
      "ভীত": 5825,
      "পনেরো": 5826,
      "##োনে": 5827,
      "লিখতে": 5828,
      "অ্যাড": 5829,
      "গিয়েছিল": 5830,
      "##ফর": 5831,
      "তারে": 5832,
      "##দারের": 5833,
      "উৎক": 5834,
      "০৩": 5835,
      "ab": 5836,
      "লাঠি": 5837,
      "অমৃত": 5838,
      "পিস্তল": 5839,
      "ট্রেন": 5840,
      "আসবেন": 5841,
      "অপরি": 5842,
      "তোলা": 5843,
      "##নিং": 5844,
      "শিখে": 5845,
      "নির্দিষ্ট": 5846,
      "লেগেছে": 5847,
      "রবীন্দ্রনাথ": 5848,
      "সিনে": 5849,
      "বাদে": 5850,
      "সফল": 5851,
      "সংসারের": 5852,
      "অসংখ্য": 5853,
      "##িতির": 5854,
      "জাহ": 5855,
      "##বনে": 5856,
      "খণ্ড": 5857,
      "মুক": 5858,
      "##বাহিত": 5859,
      "শোনো": 5860,
      "আসেনি": 5861,
      "বারান্দায়": 5862,
      "সুখে": 5863,
      "চারপাশে": 5864,
      "ম্যানে": 5865,
      "জ্যোতি": 5866,
      "নক্ষ": 5867,
      "ইউনি": 5868,
      "##হো": 5869,
      "##ঘট": 5870,
      "ভালই": 5871,
      "মেশ": 5872,
      "কিক": 5873,
      "মহাম": 5874,
      "প্রেসিডে": 5875,
      "ধুলো": 5876,
      "স্যা": 5877,
      "##ধারে": 5878,
      "যুগে": 5879,
      "যাওয়ার": 5880,
      "বাহিরে": 5881,
      "দিগ": 5882,
      "কাপড়": 5883,
      "ওদিক": 5884,
      "ঋষি": 5885,
      "ঠাট": 5886,
      "উপহার": 5887,
      "বেজে": 5888,
      "বোধহয়": 5889,
      "ইঙ্গিত": 5890,
      "##খর": 5891,
      "##াবাহ": 5892,
      "ক্যাপ্টেন": 5893,
      "আসিল": 5894,
      "কাঁদতে": 5895,
      "##শ্রম": 5896,
      "অগ": 5897,
      "আলী": 5898,
      "##পুরের": 5899,
      "বিস্তার": 5900,
      "শুনিয়া": 5901,
      "সান": 5902,
      "দেখাচ্ছে": 5903,
      "##তাকে": 5904,
      "আসছি": 5905,
      "##ক্ষম": 5906,
      "সেনাপতি": 5907,
      "মেয়েকে": 5908,
      "আহার": 5909,
      "বিদায়": 5910,
      "জাতির": 5911,
      "অভিয": 5912,
      "করেও": 5913,
      "কারণেই": 5914,
      "##য়ং": 5915,
      "বং": 5916,
      "অসুবিধে": 5917,
      "খাদ্য": 5918,
      "##ভির": 5919,
      "তাঁহারা": 5920,
      "নিজেও": 5921,
      "أَ": 5922,
      "##ীল": 5923,
      "ক্ষীণ": 5924,
      "ফেলা": 5925,
      "যেসব": 5926,
      "থেকেও": 5927,
      "এমনভাবে": 5928,
      "প্রত্যক্ষ": 5929,
      "উড়ে": 5930,
      "বিচ্ছ": 5931,
      "তুলল": 5932,
      "কাটিয়ে": 5933,
      "ছাই": 5934,
      "সাধন": 5935,
      "সর্বত্র": 5936,
      "প্রাণী": 5937,
      "হলাম": 5938,
      "ফেরার": 5939,
      "wor": 5940,
      "##iv": 5941,
      "নিরাপদ": 5942,
      "##স্টান": 5943,
      "ভাবি": 5944,
      "##কন": 5945,
      "ঘৃণা": 5946,
      "##াম্": 5947,
      "##ant": 5948,
      "চরম": 5949,
      "আপাত": 5950,
      "বধ": 5951,
      "২২": 5952,
      "##্লেন": 5953,
      "##ালির": 5954,
      "শোক": 5955,
      "##ুঃ": 5956,
      "অনুভূতি": 5957,
      "##বরা": 5958,
      "কাব্য": 5959,
      "বলছিল": 5960,
      "তুমিই": 5961,
      "ঝুঁকে": 5962,
      "##শাল": 5963,
      "জামাই": 5964,
      "পাঁ": 5965,
      "##গতি": 5966,
      "ঢুকতে": 5967,
      "মন্ত্রী": 5968,
      "দিয়েই": 5969,
      "মেয়েরা": 5970,
      "বাসায়": 5971,
      "অভিজ্ঞতা": 5972,
      "চূ": 5973,
      "বনের": 5974,
      "দ্বী": 5975,
      "বোতল": 5976,
      "মুসলমানদের": 5977,
      "অর্ধেক": 5978,
      "রাখি": 5979,
      "গরু": 5980,
      "##ণার": 5981,
      "সংস্কৃত": 5982,
      "নিয়ম": 5983,
      "নিজস্ব": 5984,
      "ক্লাস": 5985,
      "আন্ত": 5986,
      "সান্ত": 5987,
      "##ৃহ": 5988,
      "ইন্ড": 5989,
      "রইলেন": 5990,
      "পঁচ": 5991,
      "প্রেমের": 5992,
      "একান্ত": 5993,
      "মর্ম": 5994,
      "নির্জন": 5995,
      "বায়": 5996,
      "আর্ত": 5997,
      "পিতার": 5998,
      "ন্যা": 5999,
      "বসেছে": 6000,
      "দীর্ঘশ্বাস": 6001,
      "##িপ্র": 6002,
      "##ma": 6003,
      "##ind": 6004,
      "সংশ": 6005,
      "হাসপাতা": 6006,
      "পদার্থ": 6007,
      "সন্ধে": 6008,
      "তৃতীয়": 6009,
      "আহ্ব": 6010,
      "সেখানেই": 6011,
      "কোম": 6012,
      "জঙ্গল": 6013,
      "মণি": 6014,
      "বাতি": 6015,
      "পুনঃ": 6016,
      "##গী": 6017,
      "দিয়েছেন": 6018,
      "সেদিকে": 6019,
      "মুছ": 6020,
      "##্রাট": 6021,
      "যেভাবে": 6022,
      "পদ্ম": 6023,
      "##াবের": 6024,
      "কেঁপে": 6025,
      "এগো": 6026,
      "তর্ক": 6027,
      "নাটক": 6028,
      "করলেই": 6029,
      "হাতটা": 6030,
      "there": 6031,
      "লোহার": 6032,
      "টিকি": 6033,
      "ম্যাক": 6034,
      "নেওয়া": 6035,
      "ভালোবাসা": 6036,
      "রূপে": 6037,
      "##र्": 6038,
      "যেটা": 6039,
      "##ong": 6040,
      "ময়": 6041,
      "##গন": 6042,
      "সম্পাদ": 6043,
      "##ther": 6044,
      "শাড়ি": 6045,
      "অসুবিধা": 6046,
      "পড়েছিল": 6047,
      "##০৪": 6048,
      "বেড়া": 6049,
      "রিপো": 6050,
      "অস্বীকার": 6051,
      "দেহের": 6052,
      "ঢেকে": 6053,
      "নিষ্ঠুর": 6054,
      "প্রশংসা": 6055,
      "ye": 6056,
      "অবল": 6057,
      "জুড়ে": 6058,
      "দ্বীপ": 6059,
      "ছন্দ": 6060,
      "##্যং": 6061,
      "ll": 6062,
      "##ভাষ": 6063,
      "পারছেন": 6064,
      "আগমন": 6065,
      "শক": 6066,
      "হোটেলে": 6067,
      "জিগ্যেস": 6068,
      "ভেদ": 6069,
      "##িক্ষে": 6070,
      "রকমের": 6071,
      "বাজার": 6072,
      "##কল্প": 6073,
      "সায়": 6074,
      "##বাক": 6075,
      "উপযুক্ত": 6076,
      "বেড়াতে": 6077,
      "গিয়েছে": 6078,
      "টানা": 6079,
      "মধ্যেও": 6080,
      "##ট্ট": 6081,
      "ফিরতে": 6082,
      "##াপাশি": 6083,
      "পালা": 6084,
      "##ন্দু": 6085,
      "বুঝল": 6086,
      "হারা": 6087,
      "পাশাপাশি": 6088,
      "এবারে": 6089,
      "২৫": 6090,
      "##ংগ": 6091,
      "আউ": 6092,
      "অজ্ঞ": 6093,
      "গড়": 6094,
      "থামল": 6095,
      "ক্ষণ": 6096,
      "##পাশের": 6097,
      "সপ্তাহ": 6098,
      "সারি": 6099,
      "##জেন": 6100,
      "হতাশ": 6101,
      "জানালার": 6102,
      "##ণ্ণ": 6103,
      "বিকেলে": 6104,
      "আমাদি": 6105,
      "দেবতার": 6106,
      "হাসপাতালে": 6107,
      "তুমিও": 6108,
      "##বাসী": 6109,
      "মরণ": 6110,
      "ভিজে": 6111,
      "সাথ": 6112,
      "at": 6113,
      "##দাই": 6114,
      "##ৰ্ব": 6115,
      "মুন": 6116,
      "কঠোর": 6117,
      "##াবলী": 6118,
      "##চ্ছেদ": 6119,
      "ভাবছি": 6120,
      "বায়": 6121,
      "থাকো": 6122,
      "সর্বনাশ": 6123,
      "প্রতিক": 6124,
      "বাণী": 6125,
      "##িয়ের": 6126,
      "সঠিক": 6127,
      "##ান্নার": 6128,
      "শাঙ্কো": 6129,
      "শ্ৰ": 6130,
      "this": 6131,
      "হাঁটু": 6132,
      "##হন": 6133,
      "##াপন": 6134,
      "স্থাপন": 6135,
      "দেখাতে": 6136,
      "কোরো": 6137,
      "অন্যের": 6138,
      "পাঠিয়ে": 6139,
      "##মিক": 6140,
      "en": 6141,
      "নক": 6142,
      "পরিচাল": 6143,
      "##স্টে": 6144,
      "নেবার": 6145,
      "##ore": 6146,
      "উপকার": 6147,
      "করিয়াছে": 6148,
      "সাবধানে": 6149,
      "অনা": 6150,
      "লোকটাকে": 6151,
      "ঝাঁক": 6152,
      "মরু": 6153,
      "dis": 6154,
      "আগামী": 6155,
      "অ্যাল": 6156,
      "লাশ": 6157,
      "kn": 6158,
      "টো": 6159,
      "প্রাণের": 6160,
      "শুই": 6161,
      "বালক": 6162,
      "জটিল": 6163,
      "মুশকিল": 6164,
      "যাচ্ছেন": 6165,
      "চাঁদের": 6166,
      "ভারতের": 6167,
      "ব্যক্তির": 6168,
      "খ্রি": 6169,
      "তোম": 6170,
      "##মুখে": 6171,
      "##য়ন": 6172,
      "প্রতিবাদ": 6173,
      "কেউই": 6174,
      "জ্বলছে": 6175,
      "কাঁটা": 6176,
      "##াব্দ": 6177,
      "শাস্ত্র": 6178,
      "স্তব্ধ": 6179,
      "সেজন্য": 6180,
      "কিছুর": 6181,
      "বাসা": 6182,
      "বোঝে": 6183,
      "চিব": 6184,
      "পশ": 6185,
      "##op": 6186,
      "##টারি": 6187,
      "আশে": 6188,
      "##িমার": 6189,
      "হয়ত": 6190,
      "##শ্যক": 6191,
      "কালী": 6192,
      "##ডিও": 6193,
      "২৪": 6194,
      "হইলেন": 6195,
      "##ীতির": 6196,
      "অতিক্রম": 6197,
      "##ৃতির": 6198,
      "ফুলে": 6199,
      "মতই": 6200,
      "সূর্যের": 6201,
      "নিয়ম": 6202,
      "হাসিয়া": 6203,
      "টর্": 6204,
      "সদা": 6205,
      "স্যাম": 6206,
      "উৎসব": 6207,
      "##দাম": 6208,
      "##ব্রত": 6209,
      "দিয়েছিলেন": 6210,
      "##াদার": 6211,
      "মারে": 6212,
      "##াসরি": 6213,
      "##ভাগ্য": 6214,
      "মনোর": 6215,
      "ডাক্তারের": 6216,
      "মনোযোগ": 6217,
      "##কত": 6218,
      "যত্ন": 6219,
      "যতক্ষণ": 6220,
      "দাঁড়াইয়া": 6221,
      "সাহায্যে": 6222,
      "##যোগে": 6223,
      "উদ্দেশে": 6224,
      "##দল": 6225,
      "##গন্ধ": 6226,
      "সুধ": 6227,
      "ব্যবস": 6228,
      "দার্": 6229,
      "##যন্ত্র": 6230,
      "##াদী": 6231,
      "পিসি": 6232,
      "বৃষ্টির": 6233,
      "জঙ্গলের": 6234,
      "তাপ": 6235,
      "বিড়": 6236,
      "##ous": 6237,
      "ঝামেলা": 6238,
      "নগর": 6239,
      "##িউ": 6240,
      "দুশ্চ": 6241,
      "পাখির": 6242,
      "জানত": 6243,
      "জাপ": 6244,
      "##বিদ": 6245,
      "##পারে": 6246,
      "চেয়ারে": 6247,
      "জ্যা": 6248,
      "নাট": 6249,
      "পাবেন": 6250,
      "গেলেই": 6251,
      "চারজন": 6252,
      "লাফিয়ে": 6253,
      "নিষেধ": 6254,
      "পুকুর": 6255,
      "##কমে": 6256,
      "##ঙ্কে": 6257,
      "ভালোই": 6258,
      "স্বয়ং": 6259,
      "দূরের": 6260,
      "দয়া": 6261,
      "২৩": 6262,
      "সময়ের": 6263,
      "##চনার": 6264,
      "##মানের": 6265,
      "##োজ": 6266,
      "বজ্র": 6267,
      "##রাও": 6268,
      "জানলা": 6269,
      "বৃত্ত": 6270,
      "সরাসরি": 6271,
      "কয়": 6272,
      "বিজয়": 6273,
      "যথার্থ": 6274,
      "ঋজুদা": 6275,
      "থমকে": 6276,
      "মেয়েদের": 6277,
      "হউক": 6278,
      "##ুনে": 6279,
      "সুখের": 6280,
      "নিস্ত": 6281,
      "স্বাস্থ": 6282,
      "কোনওদিন": 6283,
      "বক্তৃতা": 6284,
      "কল্যাণ": 6285,
      "##ৌক": 6286,
      "নিলাম": 6287,
      "জঙ্গলে": 6288,
      "জানার": 6289,
      "##ss": 6290,
      "##াঙ্গ": 6291,
      "ফ্রে": 6292,
      "দেয়ার": 6293,
      "আত্মার": 6294,
      "শীঘ্র": 6295,
      "ইঁ": 6296,
      "##পণ": 6297,
      "##র্ন": 6298,
      "##াপদ": 6299,
      "##ুল্য": 6300,
      "সঙ্গী": 6301,
      "পদে": 6302,
      "হুই": 6303,
      "বসা": 6304,
      "মেজা": 6305,
      "নল": 6306,
      "টল": 6307,
      "শ্রদ্ধা": 6308,
      "ধ্রুব": 6309,
      "con": 6310,
      "##পথে": 6311,
      "which": 6312,
      "অন্যায়": 6313,
      "চারটে": 6314,
      "ফেরত": 6315,
      "বেন": 6316,
      "##াবহ": 6317,
      "আনে": 6318,
      "##লিক": 6319,
      "যেই": 6320,
      "পাইয়া": 6321,
      "বিপদে": 6322,
      "ইহু": 6323,
      "##মাদ": 6324,
      "সেসব": 6325,
      "বরাবর": 6326,
      "ছেল": 6327,
      "##িয়েই": 6328,
      "সাড়ে": 6329,
      "মারতে": 6330,
      "আন্দোল": 6331,
      "পড়িল": 6332,
      "পাঞ্জ": 6333,
      "##োত": 6334,
      "বাহিনীর": 6335,
      "##ard": 6336,
      "এক্স": 6337,
      "সমাজে": 6338,
      "তুষ": 6339,
      "বিবেক": 6340,
      "##দেবের": 6341,
      "তালা": 6342,
      "হুজ": 6343,
      "জ্বালা": 6344,
      "সম্রাট": 6345,
      "se": 6346,
      "বিপুল": 6347,
      "পুরোহিত": 6348,
      "তাড়াতা": 6349,
      "পরিবেশ": 6350,
      "এন": 6351,
      "প্রায়ই": 6352,
      "চেয়েও": 6353,
      "বুঝলাম": 6354,
      "বারে": 6355,
      "##তলার": 6356,
      "খুঁজতে": 6357,
      "ভরসা": 6358,
      "##শ্ম": 6359,
      "আড়": 6360,
      "বিপ্ল": 6361,
      "ডাকল": 6362,
      "লক্ষ্মী": 6363,
      "tr": 6364,
      "শিষ্য": 6365,
      "##খানার": 6366,
      "কদ": 6367,
      "##নাকে": 6368,
      "বিদায়": 6369,
      "##্সি": 6370,
      "##রার": 6371,
      "##োয়া": 6372,
      "পানে": 6373,
      "বসিয়ে": 6374,
      "##সিদ্ধ": 6375,
      "জোগা": 6376,
      "তাড়া": 6377,
      "##ত্থ": 6378,
      "জার্ম": 6379,
      "সন্ন্য": 6380,
      "ডেভিড": 6381,
      "নামতে": 6382,
      "নিশ": 6383,
      "##াং": 6384,
      "বছরে": 6385,
      "স্বাধীনতা": 6386,
      "ছেলেটি": 6387,
      "অতিথি": 6388,
      "##য়ান": 6389,
      "টিক": 6390,
      "গঠ": 6391,
      "সম্পদ": 6392,
      "সামলে": 6393,
      "বিকা": 6394,
      "##টিভ": 6395,
      "##লব": 6396,
      "গেট": 6397,
      "##ণ্ডার": 6398,
      "##িশালী": 6399,
      "##ান্ডার": 6400,
      "মাধবী": 6401,
      "বাগানে": 6402,
      "man": 6403,
      "ইন্টার": 6404,
      "ইউরো": 6405,
      "নাড়ল": 6406,
      "চেহারার": 6407,
      "কয়": 6408,
      "স্বর্": 6409,
      "তীরে": 6410,
      "##শব্দ": 6411,
      "কের": 6412,
      "##্ধ": 6413,
      "##মণি": 6414,
      "নেতা": 6415,
      "ফিরিয়া": 6416,
      "দাঁড়া": 6417,
      "তাড়াতাড়ি": 6418,
      "গাছে": 6419,
      "শুনলে": 6420,
      "নিশ্চিন্ত": 6421,
      "পাওয়ার": 6422,
      "এড": 6423,
      "##ate": 6424,
      "প্রভুর": 6425,
      "করলেও": 6426,
      "##াসন": 6427,
      "নেশা": 6428,
      "##to": 6429,
      "##মকা": 6430,
      "##ন্তর": 6431,
      "বাজারে": 6432,
      "দেখব": 6433,
      "হিংস": 6434,
      "##১১": 6435,
      "##ালাম": 6436,
      "মিশে": 6437,
      "স্বপ্নে": 6438,
      "##স্কো": 6439,
      "##হাতে": 6440,
      "মাছের": 6441,
      "সাক্ষাৎ": 6442,
      "##ন্দ্ৰ": 6443,
      "গিয়াছে": 6444,
      "সন্তু": 6445,
      "##বাজ": 6446,
      "দরজাটা": 6447,
      "জানতাম": 6448,
      "সোন": 6449,
      "ওঠা": 6450,
      "আসন": 6451,
      "পরিপূর্ণ": 6452,
      "##লোকে": 6453,
      "know": 6454,
      "সেকেন্ড": 6455,
      "চু": 6456,
      "রাখবে": 6457,
      "তোলে": 6458,
      "অবলম্ব": 6459,
      "রেল": 6460,
      "জাহাজে": 6461,
      "##িণী": 6462,
      "##তাল": 6463,
      "এইবার": 6464,
      "ভদ্রলোকের": 6465,
      "but": 6466,
      "ভুব": 6467,
      "চাইলে": 6468,
      "দুষ্ট": 6469,
      "বিদ্যা": 6470,
      "শুনলাম": 6471,
      "সূক্ষ্ম": 6472,
      "##সমূহ": 6473,
      "ছেলেদের": 6474,
      "নীতি": 6475,
      "বক্তব্য": 6476,
      "হাতি": 6477,
      "##লোকের": 6478,
      "##য়ী": 6479,
      "রাস্তায়": 6480,
      "##তলায়": 6481,
      "প্রাস": 6482,
      "সম্পত্তি": 6483,
      "##জীবন": 6484,
      "জরুরি": 6485,
      "##ধারী": 6486,
      "##ya": 6487,
      "অত্যাচার": 6488,
      "us": 6489,
      "নিচের": 6490,
      "##্মা": 6491,
      "ne": 6492,
      "ঝোঁ": 6493,
      "শাম": 6494,
      "পুষ্প": 6495,
      "##তাব": 6496,
      "করেননি": 6497,
      "ভরত": 6498,
      "##ব্ধি": 6499,
      "বুঝিয়ে": 6500,
      "পিপ": 6501,
      "নেয়": 6502,
      "গরিব": 6503,
      "##মুটি": 6504,
      "##াস্ত্র": 6505,
      "ম্যাড": 6506,
      "নামটা": 6507,
      "প্রতিপ": 6508,
      "শ্রীরামকৃষ্ণ": 6509,
      "পেছনের": 6510,
      "##োকে": 6511,
      "বলেছিলাম": 6512,
      "ইতিমধ্যে": 6513,
      "ততক্ষণে": 6514,
      "করিয়াছেন": 6515,
      "অনুষ্ঠান": 6516,
      "##ঁচা": 6517,
      "##ির্": 6518,
      "##ায়ণ": 6519,
      "ভাষায়": 6520,
      "করাই": 6521,
      "পানিতে": 6522,
      "তি": 6523,
      "ছবির": 6524,
      "ধাত": 6525,
      "##ক্ষেপ": 6526,
      "উদাস": 6527,
      "হিসেব": 6528,
      "ওঠার": 6529,
      "কোনদিন": 6530,
      "অন্যায়": 6531,
      "হোটেল": 6532,
      "আশ্রয়": 6533,
      "##োব": 6534,
      "জানিস": 6535,
      "লেখার": 6536,
      "##াসু": 6537,
      "##লাভ": 6538,
      "হয়ত": 6539,
      "লাগিয়ে": 6540,
      "##স্যার": 6541,
      "সৌন্দর্য": 6542,
      "আহ্বান": 6543,
      "দাড়ি": 6544,
      "সৈনিক": 6545,
      "গৌরব": 6546,
      "কৌতূহল": 6547,
      "লাগিলেন": 6548,
      "কামনা": 6549,
      "যাত": 6550,
      "ঘুমের": 6551,
      "গ্লাস": 6552,
      "কুঁচকে": 6553,
      "টারজান": 6554,
      "##চ্ছিলেন": 6555,
      "কতদিন": 6556,
      "চার্": 6557,
      "করিত": 6558,
      "##ীহ": 6559,
      "##ধ্বনি": 6560,
      "প্রচলিত": 6561,
      "লেখাপ": 6562,
      "মোটামুটি": 6563,
      "##ংরা": 6564,
      "ইংল": 6565,
      "প্রফেস": 6566,
      "##ক্ষণা": 6567,
      "সন্ন্যাসী": 6568,
      "##ৃক": 6569,
      "##na": 6570,
      "দেখিয়া": 6571,
      "মেঝেতে": 6572,
      "রাশি": 6573,
      "##হান": 6574,
      "me": 6575,
      "চিরকাল": 6576,
      "##িতঃ": 6577,
      "হাসলেন": 6578,
      "ফার": 6579,
      "অজ্ঞান": 6580,
      "লুট": 6581,
      "রাক্ষ": 6582,
      "অস্বা": 6583,
      "ক্যান": 6584,
      "##বৃত্তি": 6585,
      "তলো": 6586,
      "##ঙের": 6587,
      "সাগ": 6588,
      "##খানেক": 6589,
      "পেয়েছি": 6590,
      "##ত্বের": 6591,
      "সিংহাস": 6592,
      "পর্যা": 6593,
      "অস্পষ্ট": 6594,
      "##মূ": 6595,
      "মিলি": 6596,
      "এইরকম": 6597,
      "##ৃত্ব": 6598,
      "##ঝি": 6599,
      "##ন্না": 6600,
      "##ডিং": 6601,
      "উচ্ছ": 6602,
      "এতক্ষণে": 6603,
      "খায়": 6604,
      "চিন্তিত": 6605,
      "ব্রে": 6606,
      "খবরটা": 6607,
      "ভালবাসা": 6608,
      "##টিশ": 6609,
      "ছেলেরা": 6610,
      "##িমের": 6611,
      "অতঃ": 6612,
      "##্রাজ": 6613,
      "বিধান": 6614,
      "##ُمْ": 6615,
      "##ব্ব": 6616,
      "বানিয়ে": 6617,
      "বেচ": 6618,
      "দক্ষিণে": 6619,
      "দড়ি": 6620,
      "দেবো": 6621,
      "##জিদ": 6622,
      "one": 6623,
      "ল্যা": 6624,
      "সেইজন্য": 6625,
      "অ্যাম": 6626,
      "কর্নে": 6627,
      "##ংসের": 6628,
      "shall": 6629,
      "দূত": 6630,
      "has": 6631,
      "##নীয়": 6632,
      "চশ": 6633,
      "সাগর": 6634,
      "##জম": 6635,
      "একদল": 6636,
      "অভিযোগ": 6637,
      "যের": 6638,
      "##ককে": 6639,
      "তাঁহাদের": 6640,
      "##জায়": 6641,
      "মেয়েটি": 6642,
      "পরস্পরের": 6643,
      "##িতেই": 6644,
      "জীবিত": 6645,
      "যম": 6646,
      "##র্স": 6647,
      "##if": 6648,
      "বিকেল": 6649,
      "ভূমি": 6650,
      "ঘড়ি": 6651,
      "আমারে": 6652,
      "গড়ে": 6653,
      "মেয়েটির": 6654,
      "বিস": 6655,
      "ধরেছে": 6656,
      "##দং": 6657,
      "উপলব্ধি": 6658,
      "ভান": 6659,
      "##াবেন": 6660,
      "কলেজে": 6661,
      "বহন": 6662,
      "নমস্কার": 6663,
      "সাড়া": 6664,
      "##য়াই": 6665,
      "##বদ্ধ": 6666,
      "##নিয়া": 6667,
      "pro": 6668,
      "ধ্যান": 6669,
      "##বাদের": 6670,
      "গোবিন্দ": 6671,
      "জ্বি": 6672,
      "ধারা": 6673,
      "ষো": 6674,
      "ডাকাত": 6675,
      "সরকারের": 6676,
      "চল্লিশ": 6677,
      "চৌধুরী": 6678,
      "শীতল": 6679,
      "চরণ": 6680,
      "বান্ধ": 6681,
      "নিভ": 6682,
      "রক্তের": 6683,
      "অস্বাভাবিক": 6684,
      "পরনে": 6685,
      "##িয়েছে": 6686,
      "পড়লো": 6687,
      "ঠাট্টা": 6688,
      "অধ্যাপ": 6689,
      "##্যব": 6690,
      "গণ্ড": 6691,
      "লোকটির": 6692,
      "##্লান": 6693,
      "কোর": 6694,
      "##ফুল": 6695,
      "##াগো": 6696,
      "ছয়": 6697,
      "ভারতী": 6698,
      "##াধ": 6699,
      "অনুয": 6700,
      "বাসায়": 6701,
      "গুট": 6702,
      "##যঃ": 6703,
      "করতো": 6704,
      "##াপ্র": 6705,
      "মিসির": 6706,
      "যজ": 6707,
      "হক": 6708,
      "দুঃখিত": 6709,
      "##শ্রী": 6710,
      "অঙ্ক": 6711,
      "শতাব্দ": 6712,
      "বিদ্যুৎ": 6713,
      "ওয়ে": 6714,
      "সাধ্য": 6715,
      "জিনিসটা": 6716,
      "শালা": 6717,
      "মুঠ": 6718,
      "তিল": 6719,
      "ঘুমো": 6720,
      "চালাতে": 6721,
      "যতটা": 6722,
      "আঃ": 6723,
      "##বেলায়": 6724,
      "সেরকম": 6725,
      "ক্রী": 6726,
      "ফুঁ": 6727,
      "##কান্ত": 6728,
      "চাদর": 6729,
      "মর্যা": 6730,
      "জাদ": 6731,
      "ভ্রম": 6732,
      "উক্ত": 6733,
      "অলি": 6734,
      "২৬": 6735,
      "বসলেন": 6736,
      "ফেললেন": 6737,
      "##পক্ষে": 6738,
      "##ুশ": 6739,
      "অচেনা": 6740,
      "##মতে": 6741,
      "পরই": 6742,
      "রায়": 6743,
      "কারুর": 6744,
      "##কেত": 6745,
      "##ড়াতে": 6746,
      "খাচ্ছে": 6747,
      "হাঁপ": 6748,
      "নানার": 6749,
      "নিষ্": 6750,
      "##হাসিক": 6751,
      "অনুক": 6752,
      "অন্তরে": 6753,
      "##ure": 6754,
      "পড়ছে": 6755,
      "নানান": 6756,
      "নিবি": 6757,
      "##জিৎ": 6758,
      "##ারাও": 6759,
      "জ্ঞানের": 6760,
      "##ঙ্কের": 6761,
      "করতাম": 6762,
      "ঘাটে": 6763,
      "##াহ্য": 6764,
      "উদ্বে": 6765,
      "মেঘের": 6766,
      "##খণ্ড": 6767,
      "অনেকের": 6768,
      "ক্ষত": 6769,
      "তুচ্ছ": 6770,
      "ভয়ংকর": 6771,
      "উঁকি": 6772,
      "খিদে": 6773,
      "ইতস্ত": 6774,
      "পড়লেন": 6775,
      "জায়গাটা": 6776,
      "ছুরি": 6777,
      "##be": 6778,
      "কদিন": 6779,
      "##ানক": 6780,
      "হলুদ": 6781,
      "২৭": 6782,
      "ফেলবে": 6783,
      "##িন্দা": 6784,
      "##ক্ষিত": 6785,
      "উৎপন্ন": 6786,
      "শ্বে": 6787,
      "নিলে": 6788,
      "প্রসঙ্গ": 6789,
      "হায়": 6790,
      "##রাম": 6791,
      "##িয়ান": 6792,
      "আলম": 6793,
      "বলতেন": 6794,
      "##সকে": 6795,
      "##চির": 6796,
      "মায়া": 6797,
      "চণ্ড": 6798,
      "দিবে": 6799,
      "অরণ": 6800,
      "মন্দিরের": 6801,
      "উন্": 6802,
      "বিহার": 6803,
      "তুলিয়া": 6804,
      "ধর্ম্ম": 6805,
      "শক্তিশালী": 6806,
      "##ান্ডা": 6807,
      "প্রকাণ্ড": 6808,
      "##ীং": 6809,
      "বুড়ো": 6810,
      "নিয়েই": 6811,
      "সকলকে": 6812,
      "উল্টো": 6813,
      "##ূর্তি": 6814,
      "দয়া": 6815,
      "##ন্যার": 6816,
      "পয়সা": 6817,
      "ততই": 6818,
      "সবচেয়ে": 6819,
      "##ুর্": 6820,
      "said": 6821,
      "ইজ": 6822,
      "ঝো": 6823,
      "বাগানের": 6824,
      "নিম্ন": 6825,
      "দেখলেই": 6826,
      "এসেছিলেন": 6827,
      "যাইবে": 6828,
      "অসাধারণ": 6829,
      "করিতেছেন": 6830,
      "##শূন্য": 6831,
      "বদল": 6832,
      "চারদিক": 6833,
      "##াঃ": 6834,
      "বিদ্রোহ": 6835,
      "বাবুর": 6836,
      "২৮": 6837,
      "সংস্কার": 6838,
      "আচমকা": 6839,
      "প্রতিষ্ঠিত": 6840,
      "আশীর": 6841,
      "প্রহরী": 6842,
      "হেম": 6843,
      "পার্ট": 6844,
      "ঝড়": 6845,
      "থাকিতে": 6846,
      "আজি": 6847,
      "হাসিম": 6848,
      "গুড": 6849,
      "সুবিধা": 6850,
      "গোপনে": 6851,
      "ইর": 6852,
      "##টোর": 6853,
      "ছায়া": 6854,
      "ওল": 6855,
      "##থিত": 6856,
      "পাইল": 6857,
      "দশটা": 6858,
      "##ছিলুম": 6859,
      "নবী": 6860,
      "পাবার": 6861,
      "সংয": 6862,
      "আবেগ": 6863,
      "০৪": 6864,
      "করিতেন": 6865,
      "##ন্তু": 6866,
      "##ৎস্": 6867,
      "ছল": 6868,
      "##শোধ": 6869,
      "একরকম": 6870,
      "শরীরটা": 6871,
      "বারান্দায়": 6872,
      "বাঃ": 6873,
      "অফিসের": 6874,
      "রমে": 6875,
      "উত্তম": 6876,
      "##বিদ্যাল": 6877,
      "বিস্ময়": 6878,
      "##ড়ানো": 6879,
      "##âh": 6880,
      "তাহাই": 6881,
      "##াপতি": 6882,
      "শোনার": 6883,
      "অবনী": 6884,
      "স্বচ্ছ": 6885,
      "##ood": 6886,
      "##দ্দীন": 6887,
      "পদ্ধ": 6888,
      "পাদ": 6889,
      "বেছে": 6890,
      "কালের": 6891,
      "একশো": 6892,
      "করিস": 6893,
      "সাজানো": 6894,
      "ব্যাকুল": 6895,
      "অস্বস্তি": 6896,
      "##িবার": 6897,
      "##কথা": 6898,
      "##মুহ": 6899,
      "ভবিষ্যৎ": 6900,
      "##ত্রিশ": 6901,
      "ইস্ক": 6902,
      "সিম": 6903,
      "##তীত": 6904,
      "ex": 6905,
      "আপা": 6906,
      "বিত": 6907,
      "##শ্রে": 6908,
      "যৌন": 6909,
      "ছাদে": 6910,
      "পূর": 6911,
      "শয়": 6912,
      "##যুদ্ধ": 6913,
      "মেম": 6914,
      "আড্ড": 6915,
      "দেখেছেন": 6916,
      "প্রাপ": 6917,
      "তোমায়": 6918,
      "চড়ে": 6919,
      "আজই": 6920,
      "কাগজের": 6921,
      "##িষ": 6922,
      "তারও": 6923,
      "উপভোগ": 6924,
      "লাখ": 6925,
      "##ওয়ালা": 6926,
      "চও": 6927,
      "কার্": 6928,
      "পড়লে": 6929,
      "##শালী": 6930,
      "when": 6931,
      "belie": 6932,
      "up": 6933,
      "ওগুলো": 6934,
      "স্কুলের": 6935,
      "সৈন্যদের": 6936,
      "গঙ্গার": 6937,
      "বিবরণ": 6938,
      "রাজনৈতিক": 6939,
      "##্তন": 6940,
      "ফু": 6941,
      "ইশ": 6942,
      "##ত্তির": 6943,
      "থাকবেন": 6944,
      "লাগানো": 6945,
      "কাঁচা": 6946,
      "আমারই": 6947,
      "হাসপাত": 6948,
      "কিকিরা": 6949,
      "গড়িয়ে": 6950,
      "গাড়ির": 6951,
      "নিবে": 6952,
      "বুজে": 6953,
      "কায়": 6954,
      "অতঃপর": 6955,
      "ঝিন": 6956,
      "##য়ারে": 6957,
      "কয়েকটি": 6958,
      "##ট্টা": 6959,
      "পঁচিশ": 6960,
      "পরিশ্রম": 6961,
      "চায়ের": 6962,
      "##ৃত্তি": 6963,
      "##েলো": 6964,
      "what": 6965,
      "দীন": 6966,
      "গোলমাল": 6967,
      "জিপ": 6968,
      "স্তু": 6969,
      "মন্ত্রের": 6970,
      "আং": 6971,
      "বিশ্ববিদ্যাল": 6972,
      "##ভাগে": 6973,
      "ব্রহ্মা": 6974,
      "পৃষ্": 6975,
      "অবলম্বন": 6976,
      "বন্ধন": 6977,
      "প্রকাশিত": 6978,
      "কেন্দ্র": 6979,
      "##ৃষ্ণা": 6980,
      "বাপু": 6981,
      "বিন্দু": 6982,
      "সত্ত্ব": 6983,
      "তৈরী": 6984,
      "##ould": 6985,
      "দ্যাখো": 6986,
      "##্পে": 6987,
      "##কাম": 6988,
      "স্ত্রীকে": 6989,
      "সূক্ত": 6990,
      "الْ": 6991,
      "মারি": 6992,
      "##জিক": 6993,
      "বাংলার": 6994,
      "কৃতজ্ঞ": 6995,
      "ত্রিশ": 6996,
      "##ৌকিক": 6997,
      "##ঘাতে": 6998,
      "##মোহন": 6999,
      "##ভেদ": 7000,
      "মতি": 7001,
      "পিট": 7002,
      "im": 7003,
      "নিবার": 7004,
      "আত্মীয়": 7005,
      "আঁকা": 7006,
      "উৎপাদ": 7007,
      "যুবতী": 7008,
      "লেখে": 7009,
      "কলিক": 7010,
      "ঢেলে": 7011,
      "##শর": 7012,
      "##র্জন": 7013,
      "কর্নেল": 7014,
      "ধৈর্য": 7015,
      "জিনিসপত্র": 7016,
      "গালে": 7017,
      "ফাট": 7018,
      "ঝি": 7019,
      "##মেব": 7020,
      "করছিলেন": 7021,
      "ওঁকে": 7022,
      "মন্তব্য": 7023,
      "কবিতার": 7024,
      "দৈত্য": 7025,
      "##od": 7026,
      "রাগে": 7027,
      "দেখেনি": 7028,
      "তৃতীয়": 7029,
      "##পাই": 7030,
      "কর্ণ": 7031,
      "##ার্ন": 7032,
      "##্রমে": 7033,
      "চিন্তার": 7034,
      "প্রেসিডেন্ট": 7035,
      "চতুর্থ": 7036,
      "যুগের": 7037,
      "মহাস": 7038,
      "##বার্ট": 7039,
      "পারা": 7040,
      "##ত্তম": 7041,
      "ডাকতে": 7042,
      "llâh": 7043,
      "##চেতন": 7044,
      "ক্ষেত্র": 7045,
      "পারতাম": 7046,
      "গর্ত": 7047,
      "বৎস": 7048,
      "##ঁক": 7049,
      "ভাষার": 7050,
      "##জাল": 7051,
      "ফেটে": 7052,
      "##ুদের": 7053,
      "##্রত": 7054,
      "##াবন": 7055,
      "##ভন": 7056,
      "বন্ধুদের": 7057,
      "দোকানের": 7058,
      "বিবেচনা": 7059,
      "গেলেও": 7060,
      "ব্ল্যাক": 7061,
      "##ছাড়া": 7062,
      "জড়িয়ে": 7063,
      "চিঠিটা": 7064,
      "ট্যাক্সি": 7065,
      "চিকিৎসা": 7066,
      "দুদিন": 7067,
      "সুপ্র": 7068,
      "##ain": 7069,
      "##هِ": 7070,
      "মরতে": 7071,
      "খানিকক্ষণ": 7072,
      "পারবো": 7073,
      "সেটি": 7074,
      "অ্যাক": 7075,
      "টিকিট": 7076,
      "বালি": 7077,
      "চৈ": 7078,
      "ঊর্": 7079,
      "খ্রী": 7080,
      "চালা": 7081,
      "যাবি": 7082,
      "অগ্ন": 7083,
      "নীরবে": 7084,
      "এসেছ": 7085,
      "##ুকাল": 7086,
      "জেলে": 7087,
      "গোয়ে": 7088,
      "ছিঁড়ে": 7089,
      "বিয়ের": 7090,
      "অর্থে": 7091,
      "##ect": 7092,
      "অসহায়": 7093,
      "##দাকে": 7094,
      "সর্দার": 7095,
      "##ৈতন্য": 7096,
      "দিকেই": 7097,
      "জমিদার": 7098,
      "আড়াল": 7099,
      "ম্যান": 7100,
      "মহিল": 7101,
      "স্বাস্থ্য": 7102,
      "মজার": 7103,
      "সল": 7104,
      "হের": 7105,
      "টাকাটা": 7106,
      "গুছ": 7107,
      "##পট": 7108,
      "কানের": 7109,
      "##সমা": 7110,
      "সবসময়": 7111,
      "যাঁরা": 7112,
      "ধমক": 7113,
      "আগেও": 7114,
      "ঠোঁটে": 7115,
      "সদস্য": 7116,
      "##বেল": 7117,
      "চঞ্চল": 7118,
      "চাব": 7119,
      "চড়": 7120,
      "##বৎ": 7121,
      "পড়ি": 7122,
      "সোফ": 7123,
      "##কটা": 7124,
      "##्य": 7125,
      "দিতেই": 7126,
      "স্তম্ভ": 7127,
      "ইট": 7128,
      "##র্মা": 7129,
      "অনুবাদ": 7130,
      "সত্যের": 7131,
      "##ুড়ি": 7132,
      "##শাহ": 7133,
      "##কারি": 7134,
      "মাঠের": 7135,
      "ভীম": 7136,
      "বিমান": 7137,
      "ইঞ্জ": 7138,
      "সহজেই": 7139,
      "সম্প্রদায়": 7140,
      "দিব্যি": 7141,
      "##ড়াই": 7142,
      "অন্যদিকে": 7143,
      "##ঞ্জে": 7144,
      "ঘাস": 7145,
      "##ীমা": 7146,
      "##ঠাকুর": 7147,
      "দিও": 7148,
      "প্রসন্ন": 7149,
      "##গ্রহণ": 7150,
      "##ুরী": 7151,
      "হাস্য": 7152,
      "দাদু": 7153,
      "##চারি": 7154,
      "অনুসন্ধ": 7155,
      "এমনই": 7156,
      "পরেও": 7157,
      "##ধ্যাত্ম": 7158,
      "##ঘাতিক": 7159,
      "৩০": 7160,
      "একজনকে": 7161,
      "প্রফেসর": 7162,
      "কৃষ": 7163,
      "দাদার": 7164,
      "চারিদিকে": 7165,
      "স্পে": 7166,
      "অঞ্চলে": 7167,
      "কীসের": 7168,
      "##ven": 7169,
      "##বধ": 7170,
      "প্রান্তে": 7171,
      "বসার": 7172,
      "বলেনি": 7173,
      "শীতের": 7174,
      "খাতা": 7175,
      "রাব": 7176,
      "কোমল": 7177,
      "পেটের": 7178,
      "সমাধান": 7179,
      "##ষ্ম": 7180,
      "অবস্থিত": 7181,
      "##ক্তে": 7182,
      "চিনে": 7183,
      "কালি": 7184,
      "কবর": 7185,
      "হ্র": 7186,
      "হইয়াছিল": 7187,
      "##ive": 7188,
      "নক্ষত্র": 7189,
      "খৃ": 7190,
      "##নং": 7191,
      "উপে": 7192,
      "মাতৃ": 7193,
      "বাঘের": 7194,
      "বুঝলে": 7195,
      "ধীর": 7196,
      "২৯": 7197,
      "##ৰ্য": 7198,
      "শয": 7199,
      "প্রদীপ": 7200,
      "দেহে": 7201,
      "নিতাই": 7202,
      "নট": 7203,
      "একত্র": 7204,
      "##াগর": 7205,
      "সতীশ": 7206,
      "##জরে": 7207,
      "বাট": 7208,
      "এলাক": 7209,
      "হাট": 7210,
      "কহে": 7211,
      "##ুক্তি": 7212,
      "তেমনই": 7213,
      "ঘোড়": 7214,
      "ভূমিকা": 7215,
      "অষ্ট": 7216,
      "শব্দটা": 7217,
      "ঘুরতে": 7218,
      "সদ্য": 7219,
      "মেয়": 7220,
      "পার্টি": 7221,
      "##ৰ্ম": 7222,
      "##oon": 7223,
      "##হল": 7224,
      "##সুর": 7225,
      "সমালো": 7226,
      "জানাতে": 7227,
      "ভয়ঙ্কর": 7228,
      "পির": 7229,
      "তারাও": 7230,
      "হয়েছেন": 7231,
      "বোস": 7232,
      "একসময়": 7233,
      "##খিল": 7234,
      "হিসাব": 7235,
      "মরা": 7236,
      "##প্রে": 7237,
      "তুলনা": 7238,
      "ভদ্রমহ": 7239,
      "যতদিন": 7240,
      "ঝরে": 7241,
      "উপন্যাস": 7242,
      "তস্য": 7243,
      "পাশেই": 7244,
      "বড্ড": 7245,
      "পাঠা": 7246,
      "খেলার": 7247,
      "##কতা": 7248,
      "##শায়": 7249,
      "দেখিল": 7250,
      "রোগা": 7251,
      "গর্জন": 7252,
      "##র্পণ": 7253,
      "##ানাথ": 7254,
      "বিনু": 7255,
      "##চল": 7256,
      "##সময়": 7257,
      "ভঙ্গি": 7258,
      "প্রেরণ": 7259,
      "রাসূলুল্লাহ্": 7260,
      "ear": 7261,
      "##গুন": 7262,
      "রাত্ত": 7263,
      "ঐতিহাসিক": 7264,
      "ভাবছে": 7265,
      "আবশ্যক": 7266,
      "##ীশ": 7267,
      "কাতর": 7268,
      "অবা": 7269,
      "ইয়": 7270,
      "আদিত্য": 7271,
      "এয়ার": 7272,
      "গ্য": 7273,
      "অর্জ": 7274,
      "কার্ড": 7275,
      "প্রাই": 7276,
      "এইজন্য": 7277,
      "##ণ্ঠে": 7278,
      "জ্যাক": 7279,
      "অজানা": 7280,
      "অকার": 7281,
      "প্রেমে": 7282,
      "##িক্ষেপ": 7283,
      "আবির্ভ": 7284,
      "বাড়িটা": 7285,
      "মাপ": 7286,
      "বিরাজ": 7287,
      "বিপরীত": 7288,
      "##াগ্র": 7289,
      "##ঞ্চে": 7290,
      "অবন": 7291,
      "শিশুর": 7292,
      "কষ্টে": 7293,
      "সীত": 7294,
      "আসছিল": 7295,
      "তথাপি": 7296,
      "আনু": 7297,
      "পিস": 7298,
      "কাটে": 7299,
      "দাঁড়ায়": 7300,
      "হোসেন": 7301,
      "সমর্থন": 7302,
      "জর্জ": 7303,
      "উইল": 7304,
      "তারাপদ": 7305,
      "##গণকে": 7306,
      "গীত": 7307,
      "জোড়া": 7308,
      "বিব": 7309,
      "স্বাদ": 7310,
      "পাউ": 7311,
      "সঞ্জ": 7312,
      "অন্ধকারের": 7313,
      "দুর্ব": 7314,
      "পার্থক্য": 7315,
      "বিস্ময়": 7316,
      "বিলাস": 7317,
      "হোটেলের": 7318,
      "দুম": 7319,
      "তারাই": 7320,
      "ব্যতীত": 7321,
      "ইমাম": 7322,
      "শূ": 7323,
      "##াত্য": 7324,
      "বিষণ্ণ": 7325,
      "##কায়": 7326,
      "মেজাজ": 7327,
      "বন্দি": 7328,
      "##ভু": 7329,
      "তত্র": 7330,
      "নাহ": 7331,
      "হইবার": 7332,
      "বিপদের": 7333,
      "##ভর": 7334,
      "##পী": 7335,
      "##বাবুকে": 7336,
      "মেয়েটার": 7337,
      "করিলাম": 7338,
      "যৌবন": 7339,
      "আমরাও": 7340,
      "##শোনা": 7341,
      "কৌশল": 7342,
      "চুমুক": 7343,
      "মনি": 7344,
      "মোক": 7345,
      "ছিটকে": 7346,
      "##্নি": 7347,
      "হইতেই": 7348,
      "এমনকী": 7349,
      "##ঞ্ছ": 7350,
      "গার্ড": 7351,
      "এলাকা": 7352,
      "সান্ত্ব": 7353,
      "দেই": 7354,
      "প্রস্থান": 7355,
      "অনেকখানি": 7356,
      "##ড়ালে": 7357,
      "ছুটতে": 7358,
      "শ্ল": 7359,
      "##ity": 7360,
      "উহার": 7361,
      "বাঁশ": 7362,
      "ছিলে": 7363,
      "##হী": 7364,
      "অসম": 7365,
      "##ঞ্জের": 7366,
      "##ish": 7367,
      "অমল": 7368,
      "জ্যোৎস্": 7369,
      "পেত": 7370,
      "সম্পন্ন": 7371,
      "সিল": 7372,
      "বদ্ধ": 7373,
      "##ঁধ": 7374,
      "করবি": 7375,
      "##ot": 7376,
      "মাতা": 7377,
      "লিপ": 7378,
      "একদিকে": 7379,
      "উকিল": 7380,
      "বেগে": 7381,
      "##তাং": 7382,
      "##ment": 7383,
      "এতটা": 7384,
      "খিল": 7385,
      "সারার": 7386,
      "ইল": 7387,
      "উদা": 7388,
      "সপ": 7389,
      "##পতির": 7390,
      "অর্জন": 7391,
      "সাধারণত": 7392,
      "আধ্যাত্ম": 7393,
      "নাড়": 7394,
      "##টিও": 7395,
      "প্রাণে": 7396,
      "বললেই": 7397,
      "ভুরু": 7398,
      "রত্ন": 7399,
      "আপাতত": 7400,
      "কিল": 7401,
      "##র্টে": 7402,
      "সৈন্যরা": 7403,
      "ভূতের": 7404,
      "যাইতেছে": 7405,
      "ঝুম": 7406,
      "চন্দন": 7407,
      "অনুসারে": 7408,
      "হাসিতে": 7409,
      "চাচা": 7410,
      "##িন্তা": 7411,
      "অভিমান": 7412,
      "পিটার": 7413,
      "কোল": 7414,
      "কেস": 7415,
      "অতির": 7416,
      "##ক্ষণাৎ": 7417,
      "রেক": 7418,
      "পাঁচটা": 7419,
      "উত্তেজনা": 7420,
      "প্যাকেট": 7421,
      "মাখ": 7422,
      "পেয়েছে": 7423,
      "নেন": 7424,
      "রাখিয়া": 7425,
      "ধ্বনি": 7426,
      "প্রজা": 7427,
      "পড়বে": 7428,
      "গুহ": 7429,
      "বৃক্ষ": 7430,
      "নিকটে": 7431,
      "চাইলেন": 7432,
      "ভেবেছিলাম": 7433,
      "গৃহে": 7434,
      "##َل": 7435,
      "সর্ব্ব": 7436,
      "শিউ": 7437,
      "##ালে": 7438,
      "##াদশ": 7439,
      "min": 7440,
      "##দত্ত": 7441,
      "রাজ্যের": 7442,
      "আনো": 7443,
      "কমলা": 7444,
      "অনেকগুলো": 7445,
      "কতটা": 7446,
      "##াণী": 7447,
      "নোংরা": 7448,
      "মল্ল": 7449,
      "নামল": 7450,
      "##ভূম": 7451,
      "পায়নি": 7452,
      "বিছানায়": 7453,
      "ওস": 7454,
      "খ্য": 7455,
      "দ্বিধা": 7456,
      "ঠান্ডা": 7457,
      "ছাড়িয়ে": 7458,
      "##িয়াস": 7459,
      "পেরেছে": 7460,
      "হাসিমুখে": 7461,
      "##বনের": 7462,
      "সভা": 7463,
      "লাগলাম": 7464,
      "সম্মুখ": 7465,
      "ঝাপ": 7466,
      "আধ্যাত্মিক": 7467,
      "উপত্য": 7468,
      "পদ্ধতি": 7469,
      "##ান্ত্রিক": 7470,
      "উন্নতি": 7471,
      "থাকুক": 7472,
      "চেত": 7473,
      "দের": 7474,
      "ওরকম": 7475,
      "পরিত্যাগ": 7476,
      "দুন": 7477,
      "তখনো": 7478,
      "##ারোহ": 7479,
      "আসত": 7480,
      "তৎক্ষণাৎ": 7481,
      "প্রতির": 7482,
      "##ষ্টার": 7483,
      "লিখেছেন": 7484,
      "থান": 7485,
      "##িতের": 7486,
      "মস্তি": 7487,
      "নিচ্ছে": 7488,
      "সাম্রাজ": 7489,
      "ঘনিষ্ঠ": 7490,
      "##য়েন": 7491,
      "কফ": 7492,
      "দাল": 7493,
      "দরি": 7494,
      "##ডো": 7495,
      "শোধ": 7496,
      "হাঁটা": 7497,
      "অন্তঃ": 7498,
      "ফরাসি": 7499,
      "রিপোর্ট": 7500,
      "হত্য": 7501,
      "ইতস্তত": 7502,
      "##পান": 7503,
      "মহিম": 7504,
      "##িক্ষণ": 7505,
      "##িতং": 7506,
      "##ুলা": 7507,
      "pe": 7508,
      "##িকদের": 7509,
      "##ার্থে": 7510,
      "ধনী": 7511,
      "বৈজ্ঞান": 7512,
      "##য়াম": 7513,
      "##প্য": 7514,
      "নীলা": 7515,
      "এ্যা": 7516,
      "ইস্রা": 7517,
      "##হৃত": 7518,
      "রেখা": 7519,
      "পাঠানো": 7520,
      "কলা": 7521,
      "মহৎ": 7522,
      "##টাল": 7523,
      "##চ্ছিলাম": 7524,
      "অভিশ": 7525,
      "রুদ্ধ": 7526,
      "চমক": 7527,
      "হৃদয়ে": 7528,
      "ছেলেমেয়ে": 7529,
      "সেটাকে": 7530,
      "##ৰ্ণ": 7531,
      "ছেলেমানুষ": 7532,
      "ফা": 7533,
      "নীচের": 7534,
      "৩১": 7535,
      "##রক্ষ": 7536,
      "##বস": 7537,
      "##ষৎ": 7538,
      "ছিন্ন": 7539,
      "##َن": 7540,
      "অধিকারী": 7541,
      "দেখিয়ে": 7542,
      "ঘটনাটা": 7543,
      "বিছানার": 7544,
      "গাড়িটা": 7545,
      "##ast": 7546,
      "if": 7547,
      "##ীতা": 7548,
      "ম্যানেজার": 7549,
      "গিয়েছিলাম": 7550,
      "দিয়েছি": 7551,
      "কম্ব": 7552,
      "##য়ঃ": 7553,
      "##াবাবু": 7554,
      "টানে": 7555,
      "আমাদেরকে": 7556,
      "অন্যমন": 7557,
      "ল্যাংডন": 7558,
      "সন্ন্যাস": 7559,
      "ছায়": 7560,
      "##্যি": 7561,
      "বিমল": 7562,
      "কুয়াশা": 7563,
      "sp": 7564,
      "রেখেছি": 7565,
      "উল্ল": 7566,
      "##াল্লাহ": 7567,
      "##গুলিকে": 7568,
      "##een": 7569,
      "##ন্দ্ব": 7570,
      "তরবার": 7571,
      "হেতু": 7572,
      "মামলা": 7573,
      "ঝগড়া": 7574,
      "একাক": 7575,
      "বৌদ্ধ": 7576,
      "##াতো": 7577,
      "সরকারি": 7578,
      "সক্ষম": 7579,
      "##তাই": 7580,
      "অনুগ্রহ": 7581,
      "গর্ব": 7582,
      "পাতলা": 7583,
      "চিক": 7584,
      "##কর্তা": 7585,
      "পাইনি": 7586,
      "নয়ন": 7587,
      "ডলার": 7588,
      "রতন": 7589,
      "উর": 7590,
      "কৌশ": 7591,
      "নৃত্য": 7592,
      "কেব": 7593,
      "বন্ধুত্ব": 7594,
      "চুপি": 7595,
      "স্বপ্নের": 7596,
      "##িতেছিল": 7597,
      "স্বাত": 7598,
      "##বাড়ি": 7599,
      "ধরিয়ে": 7600,
      "ম্লান": 7601,
      "রেমি": 7602,
      "ছাগ": 7603,
      "পট": 7604,
      "##ানীর": 7605,
      "then": 7606,
      "মায়া": 7607,
      "ফোঁটা": 7608,
      "ওয়া": 7609,
      "##ন্দি": 7610,
      "##িশন": 7611,
      "##ন্টি": 7612,
      "বয়সে": 7613,
      "আপনিই": 7614,
      "বসেছিল": 7615,
      "ঢুকিয়ে": 7616,
      "আত্মীয়": 7617,
      "##োস": 7618,
      "নিই": 7619,
      "স্টি": 7620,
      "কাঁপছে": 7621,
      "ভেজা": 7622,
      "গুন": 7623,
      "##হাদ": 7624,
      "ফিরিয়ে": 7625,
      "খুলতে": 7626,
      "উঠলাম": 7627,
      "তরুণী": 7628,
      "জহ": 7629,
      "##লেম": 7630,
      "অন্যরকম": 7631,
      "পাতার": 7632,
      "বৃদ্ধি": 7633,
      "##ُوا": 7634,
      "প্রিন্স": 7635,
      "পাছে": 7636,
      "সামনেই": 7637,
      "ঘন্টা": 7638,
      "নাগর": 7639,
      "মুচ": 7640,
      "##বাহের": 7641,
      "বেদনা": 7642,
      "পর্বত": 7643,
      "ছট": 7644,
      "আবদুল": 7645,
      "##সত্ত্ব": 7646,
      "এরই": 7647,
      "এতই": 7648,
      "##েকের": 7649,
      "টানতে": 7650,
      "কোম্পানির": 7651,
      "হাওয়া": 7652,
      "বিদেশী": 7653,
      "বয়ে": 7654,
      "##ওর": 7655,
      "আরব": 7656,
      "লন্ড": 7657,
      "আয়াত": 7658,
      "শারীর": 7659,
      "সরস্ব": 7660,
      "লালন": 7661,
      "##োরের": 7662,
      "শাড়ি": 7663,
      "থামিয়ে": 7664,
      "বীজ": 7665,
      "গিল": 7666,
      "##শাই": 7667,
      "##াবুর": 7668,
      "ম্যাগ": 7669,
      "##ক্রমে": 7670,
      "মঞ্জ": 7671,
      "পুরস্কার": 7672,
      "একপাশে": 7673,
      "##িনো": 7674,
      "বাতাসের": 7675,
      "আমেরিকান": 7676,
      "ততক্ষণ": 7677,
      "##ধির": 7678,
      "la": 7679,
      "pr": 7680,
      "মূর্": 7681,
      "##তানের": 7682,
      "##ুতর": 7683,
      "লীলা": 7684,
      "পুতুল": 7685,
      "ভবে": 7686,
      "##ৃষ্ণের": 7687,
      "শুনল": 7688,
      "##ke": 7689,
      "তোমায়": 7690,
      "বসুন": 7691,
      "হুজুর": 7692,
      "খোল": 7693,
      "##িয়াছে": 7694,
      "এক্ষুনি": 7695,
      "রুটি": 7696,
      "কলেজ": 7697,
      "বাছ": 7698,
      "কামাল": 7699,
      "পিক": 7700,
      "##াবো": 7701,
      "##বয়": 7702,
      "বৈঠ": 7703,
      "দেয়াল": 7704,
      "অসহ্য": 7705,
      "গল্পের": 7706,
      "প্লেন": 7707,
      "কোণ": 7708,
      "৩২": 7709,
      "##يْ": 7710,
      "চুলের": 7711,
      "##তত্ত্ব": 7712,
      "ঐশ্বর": 7713,
      "ছায়": 7714,
      "প্রো": 7715,
      "##িতেন": 7716,
      "##খানায়": 7717,
      "দুঃখে": 7718,
      "রজ": 7719,
      "পাগলের": 7720,
      "দেখবেন": 7721,
      "সালাম": 7722,
      "গিয়েছিলেন": 7723,
      "পাট": 7724,
      "##ধ্যায়": 7725,
      "মানুষদের": 7726,
      "খুলল": 7727,
      "বিচ্ছিন্ন": 7728,
      "##নাই": 7729,
      "##কব": 7730,
      "##ৎবা": 7731,
      "তাতেই": 7732,
      "পাপের": 7733,
      "যাচ্ছ": 7734,
      "পরাজিত": 7735,
      "ঘেঁষে": 7736,
      "ইলেক": 7737,
      "##pt": 7738,
      "রঙ্গ": 7739,
      "আনার": 7740,
      "কড়া": 7741,
      "##ওল": 7742,
      "পতিত": 7743,
      "ইতিহাসের": 7744,
      "বুদ্ধির": 7745,
      "গায়": 7746,
      "ফার্": 7747,
      "আসছেন": 7748,
      "তুলনায়": 7749,
      "##art": 7750,
      "মিনিটের": 7751,
      "কলি": 7752,
      "কর্তা": 7753,
      "দিবার": 7754,
      "স্টেশনে": 7755,
      "##পূর্বক": 7756,
      "সন্তুষ্ট": 7757,
      "উপরের": 7758,
      "বিধবা": 7759,
      "##াণি": 7760,
      "দেড়": 7761,
      "হবেই": 7762,
      "##িমি": 7763,
      "##ুয়া": 7764,
      "ছোক": 7765,
      "খাড়া": 7766,
      "ঘোরা": 7767,
      "বিস্তৃত": 7768,
      "গের": 7769,
      "##ঝা": 7770,
      "রেখ": 7771,
      "##ধারণের": 7772,
      "জাতীয়": 7773,
      "শিক্ষিত": 7774,
      "খোঁজে": 7775,
      "সাইকেল": 7776,
      "বলিস": 7777,
      "গাড়িতে": 7778,
      "শুনিতে": 7779,
      "ভেতরের": 7780,
      "ফাঁস": 7781,
      "ওখান": 7782,
      "কখনোই": 7783,
      "চশমা": 7784,
      "তুষার": 7785,
      "রাইফেল": 7786,
      "দিতেন": 7787,
      "জাতীয়": 7788,
      "বসি": 7789,
      "অধি": 7790,
      "জিন": 7791,
      "বাবল": 7792,
      "মহেন্দ্র": 7793,
      "কলম": 7794,
      "ইয়ে": 7795,
      "বোনের": 7796,
      "সার্থ": 7797,
      "উড়": 7798,
      "বাংলো": 7799,
      "বারান্দা": 7800,
      "ইহুদী": 7801,
      "##জোর": 7802,
      "একাই": 7803,
      "কোট": 7804,
      "রাখেন": 7805,
      "কাস": 7806,
      "কেনা": 7807,
      "পুজো": 7808,
      "##ক্ষেপে": 7809,
      "আব্দ": 7810,
      "কূ": 7811,
      "আতঙ্ক": 7812,
      "বুঝেছি": 7813,
      "ঢোক": 7814,
      "পরও": 7815,
      "হাড়": 7816,
      "করিয়ে": 7817,
      "সখ": 7818,
      "এও": 7819,
      "##হত্যা": 7820,
      "মোটর": 7821,
      "ডায়": 7822,
      "##টেন": 7823,
      "অপারে": 7824,
      "করিবেন": 7825,
      "এতটুকু": 7826,
      "বিশ্বের": 7827,
      "বান্": 7828,
      "##ৈক": 7829,
      "##ক্ষেত্রে": 7830,
      "##reat": 7831,
      "সৌভাগ্য": 7832,
      "##টারে": 7833,
      "কুড়ি": 7834,
      "ভাইয়ের": 7835,
      "মহাশ": 7836,
      "##ষাং": 7837,
      "##সাধ": 7838,
      "একটুখানি": 7839,
      "##খ্যান": 7840,
      "সুবিধে": 7841,
      "বৃহৎ": 7842,
      "বুঝবে": 7843,
      "##হরি": 7844,
      "প্রবৃত্ত": 7845,
      "নাম্বার": 7846,
      "কিছুক্ষণের": 7847,
      "কিনতে": 7848,
      "সংখ্য": 7849,
      "##ব্যা": 7850,
      "দেখায়": 7851,
      "সাপের": 7852,
      "রেখেছেন": 7853,
      "##ুব্ধ": 7854,
      "রমণী": 7855,
      "বোঝার": 7856,
      "এটাও": 7857,
      "দিলেই": 7858,
      "ca": 7859,
      "সিন": 7860,
      "##্যক্ত": 7861,
      "কতক্ষণ": 7862,
      "বাঁক": 7863,
      "্যা": 7864,
      "অবস্থার": 7865,
      "##ৃদ": 7866,
      "##ঘাট": 7867,
      "##বেলে": 7868,
      "পালাতে": 7869,
      "##িগ্ন": 7870,
      "অন্যদের": 7871,
      "ঘরটা": 7872,
      "হিংস্র": 7873,
      "##ম্বে": 7874,
      "রিকশা": 7875,
      "##ড়ী": 7876,
      "গি": 7877,
      "ফ্লো": 7878,
      "থাকিয়া": 7879,
      "সৃষ্টির": 7880,
      "আশীর্বাদ": 7881,
      "##ধারা": 7882,
      "পারতেন": 7883,
      "রাখো": 7884,
      "সুবর্ণ": 7885,
      "হরে": 7886,
      "গোছ": 7887,
      "ততো": 7888,
      "শ্রেণীর": 7889,
      "##র্দ": 7890,
      "অয": 7891,
      "##ঘে": 7892,
      "##টিস": 7893,
      "##্প্র": 7894,
      "##ভরা": 7895,
      "বরুণ": 7896,
      "##ভরে": 7897,
      "অ্যান": 7898,
      "ইহ": 7899,
      "ঘাট": 7900,
      "মন্দিরে": 7901,
      "বিধি": 7902,
      "মহাভার": 7903,
      "পর্দা": 7904,
      "ঝাঁপিয়ে": 7905,
      "অন্যমনস্ক": 7906,
      "##জেন্ট": 7907,
      "উদাহরণ": 7908,
      "##তই": 7909,
      "আচ্ছন্ন": 7910,
      "##হণ": 7911,
      "##ঘণ্": 7912,
      "ফেলার": 7913,
      "স্নি": 7914,
      "শখ": 7915,
      "অর্ক": 7916,
      "##পালা": 7917,
      "##هُ": 7918,
      "উদার": 7919,
      "##বাদে": 7920,
      "অবিশ": 7921,
      "শ্রবণ": 7922,
      "বালিশ": 7923,
      "মৃতদেহ": 7924,
      "কাঁপতে": 7925,
      "রেখেছিল": 7926,
      "##াউন": 7927,
      "##শীর": 7928,
      "##িক্": 7929,
      "অনুষ্ঠ": 7930,
      "এঁকে": 7931,
      "গয়": 7932,
      "দেখাল": 7933,
      "সাংঘাতিক": 7934,
      "অরুণ": 7935,
      "দোল": 7936,
      "আন্দাজ": 7937,
      "আসতেই": 7938,
      "গতকাল": 7939,
      "##ঘন": 7940,
      "হোম": 7941,
      "বার্": 7942,
      "প্রথমেই": 7943,
      "শুধুমাত্র": 7944,
      "ওগো": 7945,
      "এজন্য": 7946,
      "বৈজ্ঞানিক": 7947,
      "মক্": 7948,
      "বিভাগ": 7949,
      "দার্শন": 7950,
      "শনি": 7951,
      "নির্মাণ": 7952,
      "উঠি": 7953,
      "নানারকম": 7954,
      "তফ": 7955,
      "পল্ল": 7956,
      "ইহাই": 7957,
      "ন্য": 7958,
      "বসিয়া": 7959,
      "নাশ": 7960,
      "বোঝাতে": 7961,
      "##সারিত": 7962,
      "পুত্রের": 7963,
      "##pp": 7964,
      "##ُونَ": 7965,
      "তাকালো": 7966,
      "বারণ": 7967,
      "বিনাশ": 7968,
      "খাঁটি": 7969,
      "আভাস": 7970,
      "নও": 7971,
      "মেলা": 7972,
      "তাকায়": 7973,
      "##য়ালের": 7974,
      "ভবতি": 7975,
      "##গগির": 7976,
      "##০৫": 7977,
      "যাহার": 7978,
      "তিতির": 7979,
      "বাণ": 7980,
      "মাতাল": 7981,
      "বাণি": 7982,
      "ডক্টর": 7983,
      "নিস্তব্ধ": 7984,
      "যেনো": 7985,
      "পড়লাম": 7986,
      "##গেন": 7987,
      "অর্ধ": 7988,
      "শুভ্র": 7989,
      "##স্মাৎ": 7990,
      "অতিরিক্ত": 7991,
      "কাজকর্ম": 7992,
      "চালু": 7993,
      "মেয়েরা": 7994,
      "গড়": 7995,
      "আশঙ্কা": 7996,
      "প্রতিনি": 7997,
      "##বাড়ির": 7998,
      "ব্যাটা": 7999,
      "দিচ্ছেন": 8000,
      "ফাল": 8001,
      "##মুক্ত": 8002,
      "পৃথক": 8003,
      "কাকা": 8004,
      "ক্রুদ্ধ": 8005,
      "ভিজ": 8006,
      "ততদিন": 8007,
      "করাতে": 8008,
      "##প্রকার": 8009,
      "দরিদ্র": 8010,
      "বুড়ি": 8011,
      "ছাদ": 8012,
      "মগ": 8013,
      "##ষিত": 8014,
      "##৬১": 8015,
      "ঘণ্টার": 8016,
      "প্রসঙ্গে": 8017,
      "##স্কি": 8018,
      "বলেছ": 8019,
      "##িয়ো": 8020,
      "##স্থানে": 8021,
      "বাথরুম": 8022,
      "our": 8023,
      "গ্রন্": 8024,
      "দায়িত্ব": 8025,
      "অশ্রু": 8026,
      "তিনিও": 8027,
      "হুমায়": 8028,
      "##َر": 8029,
      "##ck": 8030,
      "নিক্ষেপ": 8031,
      "ফেলিয়া": 8032,
      "সেটাও": 8033,
      "বিহ": 8034,
      "জানলে": 8035,
      "##ভ্র": 8036,
      "একটাই": 8037,
      "বিষ্ণু": 8038,
      "##em": 8039,
      "ঠে": 8040,
      "নির্বাচ": 8041,
      "##য়ী": 8042,
      "দ্বিজ": 8043,
      "একশ": 8044,
      "অপরিচিত": 8045,
      "##রাত": 8046,
      "অবশিষ্ট": 8047,
      "ভাবের": 8048,
      "মনকে": 8049,
      "রাজনীতি": 8050,
      "অংশে": 8051,
      "বাঙ্গ": 8052,
      "ভেঙ্গে": 8053,
      "##িমে": 8054,
      "##শ্রুতি": 8055,
      "##গর্": 8056,
      "##নাং": 8057,
      "##ুন্ত": 8058,
      "ফিরল": 8059,
      "আন্তরিক": 8060,
      "অনুযায়ী": 8061,
      "একট": 8062,
      "সেক্রে": 8063,
      "নদীতে": 8064,
      "আমাদিগকে": 8065,
      "লোকরা": 8066,
      "সীতা": 8067,
      "মোটে": 8068,
      "লাভের": 8069,
      "ঝুঁকি": 8070,
      "আর্য": 8071,
      "প্রাকৃত": 8072,
      "##ান্তরে": 8073,
      "মোরে": 8074,
      "##ূন": 8075,
      "দুইটি": 8076,
      "ষষ্ঠ": 8077,
      "##ফান": 8078,
      "প্রীতি": 8079,
      "তের": 8080,
      "ভাড়া": 8081,
      "##ণাং": 8082,
      "ভারতীয়": 8083,
      "বিপিন": 8084,
      "সিন্": 8085,
      "নিহত": 8086,
      "সংস্ক": 8087,
      "ঈষৎ": 8088,
      "স্ফ": 8089,
      "##কিং": 8090,
      "say": 8091,
      "তলা": 8092,
      "##ুদ্": 8093,
      "##োরা": 8094,
      "ধরার": 8095,
      "মেয়েটা": 8096,
      "##চী": 8097,
      "সাঁতার": 8098,
      "হয়েছি": 8099,
      "ফট": 8100,
      "কক্ষ": 8101,
      "ছড়িয়ে": 8102,
      "##শিত": 8103,
      "ad": 8104,
      "আঠ": 8105,
      "##াবাদ": 8106,
      "সাহেবকে": 8107,
      "শারীরিক": 8108,
      "শার্ট": 8109,
      "##মন্ড": 8110,
      "গঙ্গা": 8111,
      "জার্মান": 8112,
      "গাইতে": 8113,
      "##কেন": 8114,
      "বন্ধুরা": 8115,
      "##ভুক্ত": 8116,
      "উত্তেজন": 8117,
      "বিশুদ্ধ": 8118,
      "স্বামীকে": 8119,
      "##দৃষ্টি": 8120,
      "চওড়া": 8121,
      "##২১": 8122,
      "বিড়": 8123,
      "সকালের": 8124,
      "শৌ": 8125,
      "নু": 8126,
      "##মামা": 8127,
      "ঘুমিয়ে": 8128,
      "##ধিষ্ঠ": 8129,
      "শোভা": 8130,
      "থাকিবে": 8131,
      "ছটফট": 8132,
      "##কং": 8133,
      "উদ্বিগ্ন": 8134,
      "খৃস্টান": 8135,
      "দেখলো": 8136,
      "করিয়াছিলেন": 8137,
      "হৈল": 8138,
      "মানিক": 8139,
      "##াপি": 8140,
      "##ুরির": 8141,
      "##রাগ": 8142,
      "##দীপ্ত": 8143,
      "স্রোত": 8144,
      "বিশিষ্ট": 8145,
      "thou": 8146,
      "##ust": 8147,
      "কাশী": 8148,
      "সোহ": 8149,
      "##পক্ষ": 8150,
      "##চকে": 8151,
      "বসু": 8152,
      "ফ্ল্যা": 8153,
      "গোপাল": 8154,
      "বুদ্ধিমান": 8155,
      "সমুদ্রে": 8156,
      "ভোরে": 8157,
      "পরিস্থিতি": 8158,
      "উঃ": 8159,
      "রাধ": 8160,
      "##দিকের": 8161,
      "বাসনা": 8162,
      "##বেশে": 8163,
      "অবসর": 8164,
      "পেরেছি": 8165,
      "পেশ": 8166,
      "##ud": 8167,
      "##হারী": 8168,
      "প্রম": 8169,
      "চিরদিন": 8170,
      "##সঙ্গ": 8171,
      "##াইট": 8172,
      "তাঁবু": 8173,
      "লাগছিল": 8174,
      "কন্": 8175,
      "ক্লা": 8176,
      "মানুষটা": 8177,
      "ফলা": 8178,
      "প্রীত": 8179,
      "was": 8180,
      "গুম": 8181,
      "##টান": 8182,
      "##্রিয়": 8183,
      "প্রতিশোধ": 8184,
      "হারাম": 8185,
      "এনেছে": 8186,
      "সাহিত্যের": 8187,
      "ছয়": 8188,
      "##ুবের": 8189,
      "যখনই": 8190,
      "পারিল": 8191,
      "ইয়া": 8192,
      "জানলার": 8193,
      "সূত্রে": 8194,
      "##য়েক": 8195,
      "খুশী": 8196,
      "##ৎপ": 8197,
      "##উন": 8198,
      "প্রল": 8199,
      "##টিই": 8200,
      "##লাপ": 8201,
      "শ্ম": 8202,
      "##্কা": 8203,
      "শত্রুর": 8204,
      "ব্লা": 8205,
      "শয়": 8206,
      "##্পা": 8207,
      "শুকিয়ে": 8208,
      "##ণিক": 8209,
      "##ings": 8210,
      "##্লার": 8211,
      "হাসছে": 8212,
      "হতভ": 8213,
      "জ্বলন্ত": 8214,
      "##গামী": 8215,
      "ডাকা": 8216,
      "হিল": 8217,
      "আক্রম": 8218,
      "৩৩": 8219,
      "সমস্যার": 8220,
      "স্বে": 8221,
      "হইয়াছিল": 8222,
      "##न्": 8223,
      "চলার": 8224,
      "বকুল": 8225,
      "পাকিস্তান": 8226,
      "তালে": 8227,
      "ঘাড়": 8228,
      "পেয়েছি": 8229,
      "##ূল্য": 8230,
      "খাটের": 8231,
      "মূল্যবান": 8232,
      "পৃথু": 8233,
      "নিকোল": 8234,
      "শোবার": 8235,
      "ch": 8236,
      "ওঁরা": 8237,
      "##স্ফুট": 8238,
      "নামিয়ে": 8239,
      "সাক্ষী": 8240,
      "সেজে": 8241,
      "ভালোবাসে": 8242,
      "so": 8243,
      "দেখানো": 8244,
      "শুনেছে": 8245,
      "বোঝাই": 8246,
      "ঝিম": 8247,
      "##ire": 8248,
      "##প্রতি": 8249,
      "সর্বে": 8250,
      "নজরে": 8251,
      "##ূহের": 8252,
      "বউদি": 8253,
      "নন্দিনী": 8254,
      "সারারাত": 8255,
      "##শেক": 8256,
      "হারিয়ে": 8257,
      "পরপর": 8258,
      "উন্নত": 8259,
      "টর্চ": 8260,
      "দেখছেন": 8261,
      "দুটা": 8262,
      "ছেঁ": 8263,
      "##ামার": 8264,
      "অপরা": 8265,
      "##বেলায়": 8266,
      "##বক": 8267,
      "অবর": 8268,
      "দৃঢ়": 8269,
      "বিলে": 8270,
      "সন্তানের": 8271,
      "দুবার": 8272,
      "ছোটখা": 8273,
      "##দশ": 8274,
      "##র্শে": 8275,
      "তারপরই": 8276,
      "ভারতবর্ষের": 8277,
      "##ople": 8278,
      "রাহ": 8279,
      "সেনাবাহ": 8280,
      "##৮১": 8281,
      "##দকে": 8282,
      "মারাত্মক": 8283,
      "ফকির": 8284,
      "বলিলাম": 8285,
      "এলোম": 8286,
      "মহিলার": 8287,
      "বরফ": 8288,
      "##েলার": 8289,
      "গগন": 8290,
      "ঝক": 8291,
      "##হ্ম": 8292,
      "##ুলার": 8293,
      "পিতাম": 8294,
      "##য়াম": 8295,
      "##ঙ্গি": 8296,
      "সরি": 8297,
      "ম্যাডাম": 8298,
      "##াগুলি": 8299,
      "আদাল": 8300,
      "দৌড়": 8301,
      "নির্মল": 8302,
      "মিউ": 8303,
      "তলায়": 8304,
      "ঘটল": 8305,
      "অধ্যাপক": 8306,
      "সান্ত্বনা": 8307,
      "##কান": 8308,
      "দেখেছ": 8309,
      "আইউবী": 8310,
      "বিস্ফ": 8311,
      "পেলো": 8312,
      "##tain": 8313,
      "ডিপ": 8314,
      "##ন্তী": 8315,
      "##ভূমির": 8316,
      "জুট": 8317,
      "আওয়া": 8318,
      "নার্": 8319,
      "##৭১": 8320,
      "##ফো": 8321,
      "##য়েব": 8322,
      "সর্বো": 8323,
      "নীলু": 8324,
      "স্নিগ্ধ": 8325,
      "পত্ন": 8326,
      "বঞ্চিত": 8327,
      "my": 8328,
      "সন্ত্র": 8329,
      "জানিয়ে": 8330,
      "বাংলাদেশের": 8331,
      "##ইন": 8332,
      "তারিখ": 8333,
      "আঁচল": 8334,
      "ঘটবে": 8335,
      "##ষিদ্ধ": 8336,
      "আর্তনাদ": 8337,
      "ঢের": 8338,
      "মৈ": 8339,
      "##्र": 8340,
      "মাক": 8341,
      "শ্রদ্ধ": 8342,
      "পতি": 8343,
      "মিলিত": 8344,
      "তোমারে": 8345,
      "কুকুরের": 8346,
      "##বুর": 8347,
      "টুপি": 8348,
      "রইলাম": 8349,
      "ডাকছে": 8350,
      "##খনি": 8351,
      "##দেবী": 8352,
      "##প্রাপ্ত": 8353,
      "fav": 8354,
      "##নিষ": 8355,
      "সুপ": 8356,
      "মিলন": 8357,
      "রেশ": 8358,
      "##ৃদ্ধ": 8359,
      "বাঁকা": 8360,
      "ঠোঁটের": 8361,
      "জন্তু": 8362,
      "গোঁফ": 8363,
      "বাড়িয়ে": 8364,
      "ভালোবাসার": 8365,
      "গহ": 8366,
      "চৈতন্য": 8367,
      "ভোলা": 8368,
      "রানী": 8369,
      "##যৈ": 8370,
      "##্যাম্প": 8371,
      "শুক্র": 8372,
      "##ites": 8373,
      "স্টেশন": 8374,
      "নিযুক্ত": 8375,
      "রেড": 8376,
      "পারেননি": 8377,
      "ঝোল": 8378,
      "গ্যাল": 8379,
      "পাড়ার": 8380,
      "রইলো": 8381,
      "অর্জুন": 8382,
      "রৌ": 8383,
      "##চেন": 8384,
      "##মাণে": 8385,
      "দূরত্ব": 8386,
      "কেবলই": 8387,
      "অশোক": 8388,
      "জী": 8389,
      "৩৫": 8390,
      "মহাক": 8391,
      "বেড়ে": 8392,
      "##যোগী": 8393,
      "##গাছের": 8394,
      "রিভলবার": 8395,
      "কোমরে": 8396,
      "সদর": 8397,
      "##োম": 8398,
      "এড়িয়ে": 8399,
      "সেন্ট": 8400,
      "##মনের": 8401,
      "##তলে": 8402,
      "দাঁড়ালেন": 8403,
      "অ্যান্ড": 8404,
      "উবাচ": 8405,
      "##ীষ": 8406,
      "লাইব্র": 8407,
      "বুলিয়ে": 8408,
      "দ্যাখ": 8409,
      "উভয়": 8410,
      "বৈশিষ্ট": 8411,
      "ut": 8412,
      "##হাক": 8413,
      "ওস্ত": 8414,
      "বাহু": 8415,
      "আগুনে": 8416,
      "দীপা": 8417,
      "সেখানকার": 8418,
      "জিভ": 8419,
      "যন্ত্রণ": 8420,
      "রঘু": 8421,
      "অভ্যস্ত": 8422,
      "চারটি": 8423,
      "দাসী": 8424,
      "##ছর": 8425,
      "সাফ": 8426,
      "জানালেন": 8427,
      "বট": 8428,
      "##গ্রস্ত": 8429,
      "মেয়েকে": 8430,
      "সুষ": 8431,
      "##াস্": 8432,
      "পেলেই": 8433,
      "শশী": 8434,
      "সিন্দ": 8435,
      "রোদে": 8436,
      "নড়": 8437,
      "ভাবলাম": 8438,
      "চতুর্": 8439,
      "সামরিক": 8440,
      "##্রেস": 8441,
      "হতভম্ব": 8442,
      "##ত্তার": 8443,
      "##মধ্য": 8444,
      "প্রতিষ্ঠা": 8445,
      "##গুলোতে": 8446,
      "সমাধি": 8447,
      "##জাতির": 8448,
      "##ًا": 8449,
      "##থায়": 8450,
      "ভগবান্": 8451,
      "আও": 8452,
      "টম": 8453,
      "মন্ত্রে": 8454,
      "ওপারে": 8455,
      "হামি": 8456,
      "##সনের": 8457,
      "##স্তির": 8458,
      "শিগগির": 8459,
      "ট্রেনে": 8460,
      "গতিতে": 8461,
      "প্যান্ট": 8462,
      "রুপ": 8463,
      "দুপুরের": 8464,
      "কাদ": 8465,
      "শপথ": 8466,
      "কামর": 8467,
      "##দৃশ": 8468,
      "৩৪": 8469,
      "পুরাতন": 8470,
      "খাটে": 8471,
      "ঘনা": 8472,
      "টপ": 8473,
      "নায়": 8474,
      "বিব্রত": 8475,
      "হাঁক": 8476,
      "মর্যাদা": 8477,
      "শাশু": 8478,
      "বিকৃত": 8479,
      "তাকেই": 8480,
      "##চার্য": 8481,
      "দেয়ালের": 8482,
      "বিগ": 8483,
      "আত্মসম": 8484,
      "ভাবেই": 8485,
      "গোষ্ঠ": 8486,
      "এলোমেলো": 8487,
      "##ুঁত": 8488,
      "ধরেই": 8489,
      "খোকা": 8490,
      "সচেতন": 8491,
      "##িও": 8492,
      "##ভারের": 8493,
      "##so": 8494,
      "সরিয়ে": 8495,
      "##াল্লাহু": 8496,
      "ind": 8497,
      "আঙ্গ": 8498,
      "গেটের": 8499,
      "মুসাকে": 8500,
      "##মব": 8501,
      "সাফল": 8502,
      "মোড়": 8503,
      "শুনেই": 8504,
      "##ক্ষিপ্ত": 8505,
      "##বিষ": 8506,
      "##ঘ্ন": 8507,
      "ওটার": 8508,
      "##াভ": 8509,
      "নিষিদ্ধ": 8510,
      "মৌল": 8511,
      "খোক": 8512,
      "দুর্গের": 8513,
      "##স্টের": 8514,
      "ফাঁকি": 8515,
      "প্রত্যেকের": 8516,
      "দিল্ল": 8517,
      "##ণির": 8518,
      "দৃষ্টান্ত": 8519,
      "রবার্ট": 8520,
      "বেরু": 8521,
      "##াইবার": 8522,
      "খানে": 8523,
      "##one": 8524,
      "যুধিষ্ঠ": 8525,
      "##লু": 8526,
      "##ci": 8527,
      "মেজর": 8528,
      "স্ত্রীলোক": 8529,
      "ইশারা": 8530,
      "##াবতী": 8531,
      "রাখাল": 8532,
      "বাথরুমে": 8533,
      "ধাঁ": 8534,
      "##তারা": 8535,
      "##ালীর": 8536,
      "প্রতিষ্ঠ": 8537,
      "চেয়ার": 8538,
      "খোঁচা": 8539,
      "আড্ডা": 8540,
      "বিস্ফোর": 8541,
      "##জগ": 8542,
      "পরশু": 8543,
      "জ্যোতির": 8544,
      "ur": 8545,
      "গাঢ়": 8546,
      "মিট": 8547,
      "চাইবে": 8548,
      "নাকে": 8549,
      "চিঠির": 8550,
      "ho": 8551,
      "##ৎপর": 8552,
      "বেলায়": 8553,
      "##ওয়ার্ড": 8554,
      "##দূত": 8555,
      "ভালবাসে": 8556,
      "##স্পতি": 8557,
      "##াঁদ": 8558,
      "##ত্রী": 8559,
      "তীর্থ": 8560,
      "يَ": 8561,
      "ফেলেছি": 8562,
      "শ্লোক": 8563,
      "##কণ্ঠে": 8564,
      "বানানো": 8565,
      "hen": 8566,
      "কোমর": 8567,
      "প্রতিজ্ঞা": 8568,
      "জমির": 8569,
      "##াক্ষণ": 8570,
      "ফেরা": 8571,
      "মহাব": 8572,
      "সাধনা": 8573,
      "অক্ষর": 8574,
      "##িণ": 8575,
      "কাদের": 8576,
      "জার": 8577,
      "##ত্বে": 8578,
      "may": 8579,
      "দেখবার": 8580,
      "##ঞ্চের": 8581,
      "##বুদ্ধি": 8582,
      "জোগাড়": 8583,
      "people": 8584,
      "##াকারী": 8585,
      "সংঘ": 8586,
      "একবারও": 8587,
      "ভ্রমণ": 8588,
      "বোমা": 8589,
      "##মেন্টের": 8590,
      "##ist": 8591,
      "বাক্": 8592,
      "খাইতে": 8593,
      "পড়িয়া": 8594,
      "##স্তক": 8595,
      "কবিত": 8596,
      "চায়ের": 8597,
      "বুনো": 8598,
      "রক্তে": 8599,
      "শিল্পী": 8600,
      "##রাত্র": 8601,
      "##পত": 8602,
      "##fore": 8603,
      "পদ্": 8604,
      "পড়ি": 8605,
      "আনন্দিত": 8606,
      "এখুনি": 8607,
      "সিঁড়ির": 8608,
      "##বত": 8609,
      "সেটার": 8610,
      "গলে": 8611,
      "মায়": 8612,
      "aw": 8613,
      "লাথি": 8614,
      "ধুয়ে": 8615,
      "আখ": 8616,
      "##য়েলের": 8617,
      "মমতা": 8618,
      "বলিনি": 8619,
      "মুক্তির": 8620,
      "বিকাশ": 8621,
      "উন": 8622,
      "##শায়": 8623,
      "জীবন্ত": 8624,
      "৩৬": 8625,
      "তান": 8626,
      "পিছিয়ে": 8627,
      "গায়ের": 8628,
      "বলবার": 8629,
      "##াম্মদ": 8630,
      "করিতেছি": 8631,
      "দাঁড়াতে": 8632,
      "##দানন্দ": 8633,
      "##কারে": 8634,
      "তুর": 8635,
      "প্রবন্ধ": 8636,
      "##ভূমিতে": 8637,
      "le": 8638,
      "ক্যাম্প": 8639,
      "প্রতিক্র": 8640,
      "তলোয়ার": 8641,
      "উষ্ণ": 8642,
      "নকল": 8643,
      "গেছ": 8644,
      "##ওয়ার": 8645,
      "##va": 8646,
      "মোক্ষ": 8647,
      "বিদেশে": 8648,
      "আব্ব": 8649,
      "ছাপা": 8650,
      "ইসলামের": 8651,
      "হৃদয়ের": 8652,
      "##ake": 8653,
      "অক্": 8654,
      "কয়েকদিন": 8655,
      "অলৌকিক": 8656,
      "##ves": 8657,
      "পড়েছি": 8658,
      "রেকর্ড": 8659,
      "জের": 8660,
      "০৯": 8661,
      "##স্ট্র": 8662,
      "করুণা": 8663,
      "লজ্জিত": 8664,
      "স্বস্তি": 8665,
      "মহী": 8666,
      "রান্নাঘরে": 8667,
      "দীপ্ত": 8668,
      "শিশির": 8669,
      "বয়েস": 8670,
      "দরজায়": 8671,
      "##ুটো": 8672,
      "উভয়": 8673,
      "##ful": 8674,
      "রাজত্ব": 8675,
      "দুর্ঘট": 8676,
      "ছুটির": 8677,
      "##দ্বারা": 8678,
      "ছাড়িয়া": 8679,
      "##সেফ": 8680,
      "গণ্য": 8681,
      "সত্যই": 8682,
      "##উদ্দিন": 8683,
      "শুনুন": 8684,
      "কাহারও": 8685,
      "ঘুষ": 8686,
      "৪০": 8687,
      "চলি": 8688,
      "ভূমিক": 8689,
      "রঙিন": 8690,
      "কাটাতে": 8691,
      "এইখানে": 8692,
      "আড়ালে": 8693,
      "সালের": 8694,
      "ঘোরে": 8695,
      "##াগা": 8696,
      "বসানো": 8697,
      "নিয়েছে": 8698,
      "কর্মের": 8699,
      "##vers": 8700,
      "দেওয়ার": 8701,
      "মনেই": 8702,
      "সারাক্ষণ": 8703,
      "সকলেরই": 8704,
      "কলেজের": 8705,
      "রুমাল": 8706,
      "শুদ্ধসত্ত্ব": 8707,
      "##ামু": 8708,
      "পারছিল": 8709,
      "##oona": 8710,
      "ওজন": 8711,
      "লর্ড": 8712,
      "##হং": 8713,
      "##বেসে": 8714,
      "আজকে": 8715,
      "চেয়েছিল": 8716,
      "মনোভাব": 8717,
      "লাব": 8718,
      "##ুলোর": 8719,
      "দেবীর": 8720,
      "আশ্রম": 8721,
      "নগ্ন": 8722,
      "##েইন": 8723,
      "ব্যার": 8724,
      "পাঞ্জাবি": 8725,
      "ইত্য": 8726,
      "##َّا": 8727,
      "অনুরূপ": 8728,
      "##ِينَ": 8729,
      "ঠক": 8730,
      "##স্টা": 8731,
      "কৃপ": 8732,
      "##বিড়": 8733,
      "প্রত্যেকে": 8734,
      "আটক": 8735,
      "##ِّ": 8736,
      "অবতার": 8737,
      "দেয়ালে": 8738,
      "##ীরু": 8739,
      "##ance": 8740,
      "##বেত": 8741,
      "##মুহূর্": 8742,
      "##বেশী": 8743,
      "স্র": 8744,
      "খাবেন": 8745,
      "কীরকম": 8746,
      "ঝিনুক": 8747,
      "ঘাসের": 8748,
      "পড়ার": 8749,
      "মিশ্র": 8750,
      "কয়েকটা": 8751,
      "##জুর": 8752,
      "তিরিশ": 8753,
      "কেবলমাত্র": 8754,
      "ভিক": 8755,
      "সাধক": 8756,
      "উড়ে": 8757,
      "আমেরিকার": 8758,
      "ডিস": 8759,
      "##কাতে": 8760,
      "ফৌ": 8761,
      "অন্যতম": 8762,
      "ওঁদের": 8763,
      "জ্যাঠ": 8764,
      "অ্যাপ": 8765,
      "কান্": 8766,
      "##ভান": 8767,
      "মাফ": 8768,
      "##কারের": 8769,
      "##হ্য": 8770,
      "##ত্রিম": 8771,
      "নেয়া": 8772,
      "আজ্ঞা": 8773,
      "উড়িয়ে": 8774,
      "চলিতে": 8775,
      "বিনিম": 8776,
      "##াব্য": 8777,
      "##কর্ত": 8778,
      "পঁ": 8779,
      "শয়তান": 8780,
      "মর্": 8781,
      "যাহারা": 8782,
      "ঘাঁ": 8783,
      "সিনেমা": 8784,
      "বিক্ষ": 8785,
      "##িকো": 8786,
      "পঞ্চম": 8787,
      "এগার": 8788,
      "কোত্থ": 8789,
      "প্রয়োগ": 8790,
      "অভিনয়": 8791,
      "##াদ্ধ": 8792,
      "রেখো": 8793,
      "সংক": 8794,
      "জ্বেলে": 8795,
      "##ig": 8796,
      "##ness": 8797,
      "##িতাঃ": 8798,
      "গর্ভ": 8799,
      "আবদুল্লাহ": 8800,
      "ফারাও": 8801,
      "পারুল": 8802,
      "পারলো": 8803,
      "চড়": 8804,
      "রমেশ": 8805,
      "গদা": 8806,
      "##াকেও": 8807,
      "কাজল": 8808,
      "দুর্গা": 8809,
      "পাহাড়": 8810,
      "মামার": 8811,
      "সোনালি": 8812,
      "তামা": 8813,
      "##শিক্ষ": 8814,
      "পূর্বেই": 8815,
      "নাস": 8816,
      "ভবিষ্যতে": 8817,
      "কোত্থেকে": 8818,
      "ঢোকার": 8819,
      "##মন্দ": 8820,
      "বাঁশি": 8821,
      "হবি": 8822,
      "##্রেট": 8823,
      "##সিত": 8824,
      "হীন": 8825,
      "##লেস": 8826,
      "##sel": 8827,
      "যী": 8828,
      "চ্যা": 8829,
      "##ঞ্চিৎ": 8830,
      "আসিতে": 8831,
      "ভারতে": 8832,
      "##োনের": 8833,
      "গোলাপ": 8834,
      "জর্": 8835,
      "দেখছিল": 8836,
      "যোদ্ধ": 8837,
      "##শাস্ত্র": 8838,
      "যতদূর": 8839,
      "নরেন্দ্র": 8840,
      "তোলার": 8841,
      "পারছ": 8842,
      "##কীর্ণ": 8843,
      "বাসে": 8844,
      "পরিবর্": 8845,
      "বরণ": 8846,
      "##নিয়ার": 8847,
      "মতলব": 8848,
      "ওঃ": 8849,
      "##নীয়": 8850,
      "##খু": 8851,
      "ঈর্ষ": 8852,
      "ছাঁ": 8853,
      "বুধ": 8854,
      "মাদ": 8855,
      "##ঞ্জি": 8856,
      "জব": 8857,
      "ঋষ": 8858,
      "##গানের": 8859,
      "হয়েই": 8860,
      "কাটতে": 8861,
      "লুকিয়ে": 8862,
      "##চ্যতে": 8863,
      "ছোকরা": 8864,
      "##শয": 8865,
      "অহংকার": 8866,
      "করলুম": 8867,
      "ভৃত্য": 8868,
      "বারান্দার": 8869,
      "##জোড়া": 8870,
      "পরিণতি": 8871,
      "প্রায়ই": 8872,
      "বচন": 8873,
      "শঙ্কর": 8874,
      "##টুকুই": 8875,
      "চুমু": 8876,
      "নিবেদন": 8877,
      "পোষ": 8878,
      "যতো": 8879,
      "ঠেল": 8880,
      "##েরই": 8881,
      "বাহ্য": 8882,
      "বেগম": 8883,
      "মদন": 8884,
      "করণ": 8885,
      "রাজধান": 8886,
      "করছিলাম": 8887,
      "##াহু": 8888,
      "আলে": 8889,
      "বিস্তর": 8890,
      "##োভ": 8891,
      "শুভা": 8892,
      "দেবা": 8893,
      "রোম": 8894,
      "পূজ": 8895,
      "তন": 8896,
      "##াতেও": 8897,
      "সমস্তই": 8898,
      "বলতেই": 8899,
      "আব্বা": 8900,
      "ভূপ": 8901,
      "##ব্যাপ": 8902,
      "মাঝি": 8903,
      "নিবারণ": 8904,
      "আতা": 8905,
      "##য়ার্": 8906,
      "##িনু": 8907,
      "রাজ্যে": 8908,
      "##ome": 8909,
      "ঝকঝ": 8910,
      "##ার্জি": 8911,
      "টেনি": 8912,
      "কাঞ্চ": 8913,
      "الل": 8914,
      "লল": 8915,
      "বিপর্য": 8916,
      "বৃথা": 8917,
      "অশ্বারোহ": 8918,
      "##শক্তির": 8919,
      "আশ্ব": 8920,
      "##ৃণ": 8921,
      "রোব": 8922,
      "দেয়নি": 8923,
      "দাউ": 8924,
      "প্রেমিক": 8925,
      "ঝে": 8926,
      "##থির": 8927,
      "এসেই": 8928,
      "##হারে": 8929,
      "প্যার": 8930,
      "##ষধ": 8931,
      "পুলিস": 8932,
      "পশ্চিমে": 8933,
      "অবহ": 8934,
      "##াদান": 8935,
      "পুরে": 8936,
      "বৈষ্ণ": 8937,
      "জবা": 8938,
      "ফ্রান্সিসের": 8939,
      "ala": 8940,
      "উপন": 8941,
      "ক্ষমতার": 8942,
      "উচ্ছ্ব": 8943,
      "##urn": 8944,
      "af": 8945,
      "##গাল": 8946,
      "কোনোর": 8947,
      "সামলাতে": 8948,
      "ভেবেছিল": 8949,
      "##ভূষণ": 8950,
      "রুমে": 8951,
      "থর": 8952,
      "শ্রীম": 8953,
      "##লক": 8954,
      "ভাবা": 8955,
      "মিছিল": 8956,
      "বাঘার": 8957,
      "ব্রিটিশ": 8958,
      "নেবেন": 8959,
      "বুদ্ধিম": 8960,
      "হৃদয়ে": 8961,
      "হেরে": 8962,
      "##োজনে": 8963,
      "আয়োজন": 8964,
      "##জনকে": 8965,
      "কম্পিউ": 8966,
      "শিক্ষার": 8967,
      "ঝুলছে": 8968,
      "শঙ্ক": 8969,
      "উধ": 8970,
      "কতো": 8971,
      "অনুব": 8972,
      "বহুদিন": 8973,
      "সুজ": 8974,
      "যথাস": 8975,
      "প্লিজ": 8976,
      "প্রতীক": 8977,
      "unto": 8978,
      "##ies": 8979,
      "##ুবাবু": 8980,
      "সংগে": 8981,
      "নির্দ": 8982,
      "এগোতে": 8983,
      "নিখুঁত": 8984,
      "দামি": 8985,
      "নীচু": 8986,
      "উলটো": 8987,
      "##পোর্ট": 8988,
      "রাখলেন": 8989,
      "##র্ণা": 8990,
      "favor": 8991,
      "##ati": 8992,
      "পেন": 8993,
      "নেড়ে": 8994,
      "পিয়ের": 8995,
      "রাক্ষস": 8996,
      "##হাদুর": 8997,
      "তুলেছে": 8998,
      "গিয়াছে": 8999,
      "অঞ্চলের": 9000,
      "ভাঁজ": 9001,
      "আওয়াজ": 9002,
      "্য": 9003,
      "হইলেও": 9004,
      "কুঞ্জ": 9005,
      "##যোগিতা": 9006,
      "কানা": 9007,
      "পটল": 9008,
      "##সময়ে": 9009,
      "শরণ": 9010,
      "ভাবলেন": 9011,
      "ক্ষণে": 9012,
      "বটেই": 9013,
      "দার্শনিক": 9014,
      "ma": 9015,
      "অন্তরের": 9016,
      "পাইতে": 9017,
      "নাগাদ": 9018,
      "টক": 9019,
      "মিত": 9020,
      "আবহা": 9021,
      "##ুমান": 9022,
      "আসবার": 9023,
      "ত্রুটি": 9024,
      "##ْم": 9025,
      "নাকের": 9026,
      "জগদী": 9027,
      "##ষ্ণু": 9028,
      "ইন্দ": 9029,
      "চৈব": 9030,
      "##কুল": 9031,
      "অকস্মাৎ": 9032,
      "রজন": 9033,
      "পাঠক": 9034,
      "তামাক": 9035,
      "##qu": 9036,
      "পাচ্ছেন": 9037,
      "প্রহর": 9038,
      "##ুষে": 9039,
      "মেয়েটাকে": 9040,
      "হোমস": 9041,
      "hey": 9042,
      "অজ্ঞাত": 9043,
      "মেয়েটিকে": 9044,
      "বিদ্যমান": 9045,
      "তাকাতে": 9046,
      "মাধবীলতা": 9047,
      "জেন": 9048,
      "dd": 9049,
      "ফ্রি": 9050,
      "কর্": 9051,
      "ঝট": 9052,
      "অঞ্চল": 9053,
      "##েইল": 9054,
      "##সম্পন্ন": 9055,
      "##াবদ্ধ": 9056,
      "##জ্জনক": 9057,
      "বোতাম": 9058,
      "##ক্ষণেই": 9059,
      "##স্বপ": 9060,
      "hat": 9061,
      "সুদীপ": 9062,
      "কমান্ডার": 9063,
      "মহাশয়": 9064,
      "ag": 9065,
      "##৫১": 9066,
      "##বিষ্ট": 9067,
      "এটাকে": 9068,
      "##মুনা": 9069,
      "গুরুতর": 9070,
      "নৈতিক": 9071,
      "মলিন": 9072,
      "খসে": 9073,
      "গণে": 9074,
      "দস্য": 9075,
      "ফ্যাক": 9076,
      "##কেরা": 9077,
      "any": 9078,
      "বর্শা": 9079,
      "কোম্পানি": 9080,
      "সংগীত": 9081,
      "##্লভ": 9082,
      "কখনই": 9083,
      "##কালেই": 9084,
      "ওপরের": 9085,
      "মারল": 9086,
      "বর্ধ": 9087,
      "যেরূপ": 9088,
      "##রস": 9089,
      "##গৃহ": 9090,
      "সুফ": 9091,
      "সাথেই": 9092,
      "প্রেত": 9093,
      "জন্মের": 9094,
      "ঝিল": 9095,
      "ধোঁয়া": 9096,
      "ঝুলে": 9097,
      "##টিয়া": 9098,
      "আগন্ত": 9099,
      "##ise": 9100,
      "mo": 9101,
      "উর্": 9102,
      "কুত": 9103,
      "##َلَ": 9104,
      "বিবি": 9105,
      "##শ্বরে": 9106,
      "ঘোড়া": 9107,
      "সৎকর্ম": 9108,
      "##সাহ": 9109,
      "নারীকে": 9110,
      "গেঁ": 9111,
      "আদৌ": 9112,
      "কতকগুলি": 9113,
      "খুক": 9114,
      "ঝড়": 9115,
      "##জুক": 9116,
      "##মূর্তি": 9117,
      "লিখিত": 9118,
      "ever": 9119,
      "ছাদের": 9120,
      "মণ্ডল": 9121,
      "##ans": 9122,
      "উপাসনা": 9123,
      "পরিমাণে": 9124,
      "বেচারা": 9125,
      "ইলেকট্র": 9126,
      "খেলতে": 9127,
      "ট্রাক": 9128,
      "এখনি": 9129,
      "ওপাশে": 9130,
      "জলা": 9131,
      "##্কর": 9132,
      "বিজ্ঞানের": 9133,
      "অ্যাস": 9134,
      "##র্ত": 9135,
      "বিবাহের": 9136,
      "মিশর": 9137,
      "বিচলিত": 9138,
      "সিক": 9139,
      "বিষম": 9140,
      "লিখেছে": 9141,
      "চেহারায়": 9142,
      "অবির": 9143,
      "গায়": 9144,
      "দিয়েছিল": 9145,
      "মাহমু": 9146,
      "ভিড়": 9147,
      "ঠাক": 9148,
      "প্রজাপতি": 9149,
      "চেক": 9150,
      "বুঝলেন": 9151,
      "ধরো": 9152,
      "কয়েকবার": 9153,
      "বিপজ্জনক": 9154,
      "অন্": 9155,
      "##َب": 9156,
      "স্তব": 9157,
      "চেয়েও": 9158,
      "ভ্রূ": 9159,
      "##বান্": 9160,
      "##ভার্": 9161,
      "স্ট্রি": 9162,
      "##্না": 9163,
      "টিকে": 9164,
      "গৌরী": 9165,
      "##belie": 9166,
      "দেখাই": 9167,
      "##স্টো": 9168,
      "রাত্রির": 9169,
      "সঞ্চার": 9170,
      "অশু": 9171,
      "ঘেরা": 9172,
      "##পুণ": 9173,
      "বিপ্র": 9174,
      "বংশের": 9175,
      "কাঁদে": 9176,
      "নন্দন": 9177,
      "##বদ": 9178,
      "একখানি": 9179,
      "অপু": 9180,
      "favorites": 9181,
      "মেশিন": 9182,
      "##লামি": 9183,
      "##ত্যাগ": 9184,
      "জানতেন": 9185,
      "##our": 9186,
      "জাগে": 9187,
      "##দুঃ": 9188,
      "ভিক্ষা": 9189,
      "ফ্য": 9190,
      "##রির": 9191,
      "সুগন্ধ": 9192,
      "##কুমারী": 9193,
      "আর্ম": 9194,
      "##ভী": 9195,
      "ভয়ের": 9196,
      "##মিন": 9197,
      "##দেরকে": 9198,
      "রেস্ট": 9199,
      "##ভক্ত": 9200,
      "##বেষণ": 9201,
      "##িসা": 9202,
      "গভর্ন": 9203,
      "দ্বীপের": 9204,
      "কক্ষে": 9205,
      "বলাই": 9206,
      "ত্রিপ": 9207,
      "দুজনকে": 9208,
      "##চোখে": 9209,
      "নিকোলাস": 9210,
      "##পাক": 9211,
      "##কথ": 9212,
      "ইহাতে": 9213,
      "গোয়েন্দা": 9214,
      "ঋণ": 9215,
      "##করণ": 9216,
      "সুতো": 9217,
      "গুহার": 9218,
      "ইহাদের": 9219,
      "জিজ্ঞাস": 9220,
      "বইয়ের": 9221,
      "তৃপ্ত": 9222,
      "তারপরেই": 9223,
      "##গুলিতে": 9224,
      "বৈশিষ্ট্য": 9225,
      "খস": 9226,
      "পাষ": 9227,
      "##মুখী": 9228,
      "রচিত": 9229,
      "শস্য": 9230,
      "##মন্ত্র": 9231,
      "স্বল্প": 9232,
      "কিরণ": 9233,
      "দ্রব্য": 9234,
      "##ামো": 9235,
      "দুর্দ": 9236,
      "আমেরিকা": 9237,
      "মোহন": 9238,
      "##ৰ্ব্ব": 9239,
      "এলাকায়": 9240,
      "ক্ষত্র": 9241,
      "নয়ন": 9242,
      "নিরাপত্তা": 9243,
      "ou": 9244,
      "কন্যার": 9245,
      "ছেলেটার": 9246,
      "##জ্জিত": 9247,
      "সম্য": 9248,
      "সম্বোধন": 9249,
      "হিত": 9250,
      "উদ্বেগ": 9251,
      "বোল": 9252,
      "আবছা": 9253,
      "##িশ্চ": 9254,
      "##ৃষ্টে": 9255,
      "গুজ": 9256,
      "কর্তৃক": 9257,
      "ভোরের": 9258,
      "স্তুতি": 9259,
      "বিলম্ব": 9260,
      "##পাট": 9261,
      "বিড়বিড়": 9262,
      "উড়": 9263,
      "##ভেল": 9264,
      "বিদেশ": 9265,
      "বিনয়": 9266,
      "ইউরোপ": 9267,
      "জিত": 9268,
      "সম্প্রতি": 9269,
      "সপ্তা": 9270,
      "##ক্ষ্য": 9271,
      "এগারো": 9272,
      "##কঃ": 9273,
      "##তকে": 9274,
      "টিউ": 9275,
      "আশেপাশে": 9276,
      "বাঁধন": 9277,
      "পুনরায়": 9278,
      "বস্ত্র": 9279,
      "##তলায়": 9280,
      "প্রদর্শন": 9281,
      "বানিয়ে": 9282,
      "সোফি": 9283,
      "পাড়": 9284,
      "##চিৎ": 9285,
      "দেবতাদের": 9286,
      "স্বর্গে": 9287,
      "##ঘু": 9288,
      "রাখবেন": 9289,
      "ঘটতে": 9290,
      "দুশ্চিন্তা": 9291,
      "er": 9292,
      "তদ্ব": 9293,
      "ঐরূপ": 9294,
      "তাইতা": 9295,
      "মোব": 9296,
      "ঘুরছে": 9297,
      "প্রকাশ্য": 9298,
      "তাস": 9299,
      "বাঁচাতে": 9300,
      "##নীর": 9301,
      "তিনবার": 9302,
      "পালিয়ে": 9303,
      "স্থলে": 9304,
      "বৈঠক": 9305,
      "বিক্র": 9306,
      "চুলে": 9307,
      "কৈল": 9308,
      "##নিতে": 9309,
      "খানা": 9310,
      "##দানে": 9311,
      "স্বাহা": 9312,
      "##দিনী": 9313,
      "see": 9314,
      "بِ": 9315,
      "ধাপ": 9316,
      "##كَ": 9317,
      "বাছা": 9318,
      "সেবার": 9319,
      "জানিতে": 9320,
      "##বিশ্বাস": 9321,
      "শর্ত": 9322,
      "good": 9323,
      "##ন্যে": 9324,
      "৩৭": 9325,
      "##মটা": 9326,
      "ক্রমাগত": 9327,
      "##নিকে": 9328,
      "মাধুর": 9329,
      "দিবি": 9330,
      "রাজাকে": 9331,
      "উদ্যত": 9332,
      "##গ্রী": 9333,
      "নাঃ": 9334,
      "##য়াদ": 9335,
      "আর্থ": 9336,
      "সান্": 9337,
      "##োত্র": 9338,
      "সুড়": 9339,
      "দাঁতে": 9340,
      "ছাড়াও": 9341,
      "দ্বীপে": 9342,
      "ওসমান": 9343,
      "কাশ": 9344,
      "দারো": 9345,
      "বেড়াচ্ছে": 9346,
      "ধৃত": 9347,
      "##ডর": 9348,
      "মুখখানা": 9349,
      "শেষের": 9350,
      "ফসল": 9351,
      "##িকারের": 9352,
      "রাখব": 9353,
      "দৈব": 9354,
      "বেড়া": 9355,
      "সংগ্র": 9356,
      "ভিত্তি": 9357,
      "##ঠের": 9358,
      "বলবো": 9359,
      "রাজক": 9360,
      "তারিক": 9361,
      "##ান্তের": 9362,
      "স্ট্র": 9363,
      "পুরানো": 9364,
      "অভিশাপ": 9365,
      "ব্রেক": 9366,
      "##৩১": 9367,
      "##য়ারা": 9368,
      "সরস্বতী": 9369,
      "তন্ম": 9370,
      "জানানো": 9371,
      "তবেই": 9372,
      "দেবগণ": 9373,
      "ধুতি": 9374,
      "রেলি": 9375,
      "##ননি": 9376,
      "পুরাণ": 9377,
      "অধ্যায়": 9378,
      "সিগারেটের": 9379,
      "অবিশ্যি": 9380,
      "ক্লে": 9381,
      "##ন্ডার": 9382,
      "প্রাসাদ": 9383,
      "earth": 9384,
      "আজা": 9385,
      "জেনি": 9386,
      "ক্রে": 9387,
      "হোন": 9388,
      "##ব্যের": 9389,
      "পারিস": 9390,
      "বেশিক্ষণ": 9391,
      "চামড়া": 9392,
      "অনুসন্ধান": 9393,
      "##খিত": 9394,
      "নিমাই": 9395,
      "ওদেরকে": 9396,
      "ডানা": 9397,
      "##টটা": 9398,
      "সহায়": 9399,
      "ভিখ": 9400,
      "শূন্যে": 9401,
      "তক্ষ": 9402,
      "অধিব": 9403,
      "রিসি": 9404,
      "পূর্বপুরুষ": 9405,
      "মেঝের": 9406,
      "সময়ের": 9407,
      "রোজগার": 9408,
      "ভুবন": 9409,
      "##ঠাক": 9410,
      "##াময়": 9411,
      "##ঞ্জলি": 9412,
      "শশা": 9413,
      "##িতো": 9414,
      "সেইরকম": 9415,
      "কলকাতায়": 9416,
      "সমবেত": 9417,
      "পিছনের": 9418,
      "হামলা": 9419,
      "ঝড়ের": 9420,
      "খাইয়ে": 9421,
      "হেলান": 9422,
      "গঠন": 9423,
      "লোকগুলো": 9424,
      "gu": 9425,
      "খাবারের": 9426,
      "হৈমন্ত": 9427,
      "ইস্": 9428,
      "প্রতিশ্রুতি": 9429,
      "মহিমা": 9430,
      "##দানীং": 9431,
      "শশ": 9432,
      "একের": 9433,
      "কায়": 9434,
      "আসুক": 9435,
      "বসিল": 9436,
      "চাইছি": 9437,
      "বয়সের": 9438,
      "মাইনে": 9439,
      "##দানের": 9440,
      "সমুদ": 9441,
      "##মাস্টার": 9442,
      "সেগুলি": 9443,
      "নিমন্ত্রণ": 9444,
      "মামুন": 9445,
      "দুর্ভাগ": 9446,
      "মদের": 9447,
      "ষড়": 9448,
      "##রাষ্ট্র": 9449,
      "দিনই": 9450,
      "এলি": 9451,
      "##স্মিক": 9452,
      "##ট্টি": 9453,
      "believe": 9454,
      "আবারও": 9455,
      "বাদল": 9456,
      "আঘাতে": 9457,
      "অনির": 9458,
      "বন্দোব": 9459,
      "বাঁচতে": 9460,
      "নেক": 9461,
      "বইটা": 9462,
      "পরিবর্তে": 9463,
      "চুন": 9464,
      "##পণে": 9465,
      "কেড়ে": 9466,
      "নেওয়ার": 9467,
      "সেইসব": 9468,
      "সেইরূপ": 9469,
      "অধীন": 9470,
      "ইঁদুর": 9471,
      "পৌঁছতে": 9472,
      "##হিতা": 9473,
      "চুম্ব": 9474,
      "কচ": 9475,
      "ফাই": 9476,
      "এইটুকু": 9477,
      "যি": 9478,
      "##ফ্রে": 9479,
      "বিশ্বাসের": 9480,
      "শ্রাব": 9481,
      "ওস্তাদ": 9482,
      "দাঁড়া": 9483,
      "কর্ম্ম": 9484,
      "ছিঃ": 9485,
      "মাধব": 9486,
      "করেছিলো": 9487,
      "##তিক্রম": 9488,
      "were": 9489,
      "এইরূপে": 9490,
      "ব্যাব": 9491,
      "##স্থার": 9492,
      "থাকায়": 9493,
      "গিলে": 9494,
      "পার্ব": 9495,
      "অর্ডার": 9496,
      "জোসেফ": 9497,
      "সাহসী": 9498,
      "দেখলুম": 9499,
      "চরিত": 9500,
      "ভ্রাত": 9501,
      "নাতি": 9502,
      "বার্তা": 9503,
      "##পেন": 9504,
      "যতীন": 9505,
      "ক্লাসে": 9506,
      "তরঙ্গ": 9507,
      "tru": 9508,
      "আকস্মিক": 9509,
      "বলছিলেন": 9510,
      "আন্দোলন": 9511,
      "চিকিৎস": 9512,
      "খাস": 9513,
      "##জীর": 9514,
      "##কুমারের": 9515,
      "পণ": 9516,
      "প্রশ্নটা": 9517,
      "শুষ্ক": 9518,
      "আদায়": 9519,
      "##ওয়াল": 9520,
      "##ছুটি": 9521,
      "সিঁড়ি": 9522,
      "বর্তমানে": 9523,
      "ফাউ": 9524,
      "##াগণ": 9525,
      "আলু": 9526,
      "মেয়েটির": 9527,
      "##থম": 9528,
      "অবস": 9529,
      "ফ্ল্যাট": 9530,
      "একাকী": 9531,
      "নাইট": 9532,
      "ভগ্ন": 9533,
      "##fe": 9534,
      "অবকাশ": 9535,
      "কুৎস": 9536,
      "##িনাশ": 9537,
      "ফরি": 9538,
      "এতব": 9539,
      "##কোচ": 9540,
      "বাহিরের": 9541,
      "একটার": 9542,
      "##ence": 9543,
      "আকাঙ্": 9544,
      "অপরের": 9545,
      "ইতিহাসে": 9546,
      "##্গ": 9547,
      "##পাতের": 9548,
      "##সাধন": 9549,
      "আচার্য": 9550,
      "mad": 9551,
      "বরা": 9552,
      "ভাবটা": 9553,
      "কংগ": 9554,
      "দশা": 9555,
      "##চাল": 9556,
      "রহস্যময়": 9557,
      "ডালে": 9558,
      "হয়েছিলেন": 9559,
      "গ্রাস": 9560,
      "দাঁড়িয়েছে": 9561,
      "পাওয়ার": 9562,
      "##াওয়া": 9563,
      "এদেশে": 9564,
      "##লিয়": 9565,
      "##মন্ত্রী": 9566,
      "জড়ো": 9567,
      "জানবে": 9568,
      "##াজি": 9569,
      "##ara": 9570,
      "তারপরেও": 9571,
      "বমি": 9572,
      "এইমাত্র": 9573,
      "মানতে": 9574,
      "নির্য": 9575,
      "ভদ্রমহিলা": 9576,
      "মই": 9577,
      "হান": 9578,
      "করিয়াছিলেন": 9579,
      "##ভঙ্গি": 9580,
      "কিছুমাত্র": 9581,
      "এনেছি": 9582,
      "ভাইকে": 9583,
      "সাড়া": 9584,
      "উঠোনে": 9585,
      "ফেললাম": 9586,
      "ঘটা": 9587,
      "নড়ে": 9588,
      "##ol": 9589,
      "রাঙা": 9590,
      "জ্ঞানী": 9591,
      "আঁধার": 9592,
      "##টকাই": 9593,
      "আলিঙ্গ": 9594,
      "সপ্তাহে": 9595,
      "##ুল্ল": 9596,
      "চাইছেন": 9597,
      "খ্রীষ্ট": 9598,
      "##শস্ত্র": 9599,
      "স্বতন্ত্র": 9600,
      "বসবাস": 9601,
      "পুরুষদের": 9602,
      "মথ": 9603,
      "একক": 9604,
      "দিয়েই": 9605,
      "নিদর্শন": 9606,
      "পরক্ষণেই": 9607,
      "দুটোর": 9608,
      "জননী": 9609,
      "##ওয়ে": 9610,
      "##ভিন": 9611,
      "অভিভূত": 9612,
      "ইন্দ্রের": 9613,
      "মিটিং": 9614,
      "ব্যক্তিত্ব": 9615,
      "বাহুল্য": 9616,
      "কদা": 9617,
      "গোরা": 9618,
      "##ঘণ্টা": 9619,
      "##তোষ": 9620,
      "##শেখর": 9621,
      "ভাবছিল": 9622,
      "আইউবীর": 9623,
      "৩৮": 9624,
      "নেওয়া": 9625,
      "সন্ধ্যায়": 9626,
      "গ্ৰ": 9627,
      "হচ্ছেন": 9628,
      "কাঁদছে": 9629,
      "ভৌ": 9630,
      "নিষ্ক": 9631,
      "আত্মহত্যা": 9632,
      "মিলিয়ে": 9633,
      "আয়োজন": 9634,
      "মুঠো": 9635,
      "কোনটা": 9636,
      "##োরি": 9637,
      "লয়ে": 9638,
      "৩৯": 9639,
      "বাউল": 9640,
      "##শ্বরী": 9641,
      "দিকটা": 9642,
      "কথাটি": 9643,
      "তিনটা": 9644,
      "বন্দোবস্ত": 9645,
      "কেশ": 9646,
      "ছবিটা": 9647,
      "হ্যালো": 9648,
      "##গুপ্ত": 9649,
      "রীতিমতো": 9650,
      "রাত্তিরে": 9651,
      "জ্য": 9652,
      "পীর": 9653,
      "লড়াই": 9654,
      "##কম্": 9655,
      "আবদ্ধ": 9656,
      "আদিম": 9657,
      "ow": 9658,
      "##নাল": 9659,
      "ব্যবহৃত": 9660,
      "মহাপুরুষ": 9661,
      "মাথ": 9662,
      "অনেকবার": 9663,
      "ওঠেন": 9664,
      "প্রাকৃতিক": 9665,
      "তম": 9666,
      "জ্ঞাত": 9667,
      "উন্মাদ": 9668,
      "দিচ্ছিল": 9669,
      "##জ্জার": 9670,
      "প্রশস্ত": 9671,
      "সাজিয়ে": 9672,
      "এটুকু": 9673,
      "বেটা": 9674,
      "বসবে": 9675,
      "ঈশ্বরকে": 9676,
      "যাঁর": 9677,
      "ভাবিয়া": 9678,
      "সোমনাথ": 9679,
      "গুঁজে": 9680,
      "রেডিও": 9681,
      "হাতির": 9682,
      "মাসি": 9683,
      "পেয়েছিল": 9684,
      "মেমসাহেব": 9685,
      "অম্ব": 9686,
      "পলা": 9687,
      "ভটকাই": 9688,
      "পাখা": 9689,
      "উঠিয়া": 9690,
      "উৎপাদন": 9691,
      "বশ": 9692,
      "শও": 9693,
      "##কেটের": 9694,
      "চেয়ারে": 9695,
      "মুম": 9696,
      "দুলাল": 9697,
      "##ুমা": 9698,
      "গিরিশ": 9699,
      "গন্ধে": 9700,
      "মণ্ড": 9701,
      "##পাদ": 9702,
      "প্রভাবে": 9703,
      "ছুটল": 9704,
      "দানব": 9705,
      "##own": 9706,
      "জন্যও": 9707,
      "মানুষই": 9708,
      "##্রাণ": 9709,
      "প্রৌ": 9710,
      "নিষ্প": 9711,
      "রাণী": 9712,
      "হইব": 9713,
      "নীচ": 9714,
      "##َال": 9715,
      "প্ল্যান": 9716,
      "রুক্ষ": 9717,
      "##২৩": 9718,
      "আসনে": 9719,
      "সহানু": 9720,
      "তাছাড়া": 9721,
      "তখনকার": 9722,
      "জিনিসের": 9723,
      "##ভেট": 9724,
      "অভিযান": 9725,
      "সম্রা": 9726,
      "##ঙ্গার": 9727,
      "সেজ": 9728,
      "সুধা": 9729,
      "তস্ম": 9730,
      "বস্তুর": 9731,
      "ইদানীং": 9732,
      "করিয়াছেন": 9733,
      "সঙ্গীত": 9734,
      "বিন্দুমাত্র": 9735,
      "দুশ": 9736,
      "##েত": 9737,
      "নায়": 9738,
      "পাঠাতে": 9739,
      "খোলার": 9740,
      "উধাও": 9741,
      "প্রথা": 9742,
      "পৃষ্ঠ": 9743,
      "ভার্": 9744,
      "সচ": 9745,
      "##বাগ": 9746,
      "সর্বা": 9747,
      "গবেষ": 9748,
      "রূ": 9749,
      "##ুতের": 9750,
      "উল্টে": 9751,
      "কম্বল": 9752,
      "গল্পটা": 9753,
      "শ্রেণী": 9754,
      "বাণিজ্য": 9755,
      "ra": 9756,
      "অভাবে": 9757,
      "##শঃ": 9758,
      "পাগলা": 9759,
      "day": 9760,
      "##শাখ": 9761,
      "##সংস্কার": 9762,
      "ধরিয়া": 9763,
      "##প্রাণ": 9764,
      "##ধারিত": 9765,
      "সন্ধানে": 9766,
      "কোলা": 9767,
      "বিভ্রান্ত": 9768,
      "ডাঃ": 9769,
      "জনসা": 9770,
      "গুণে": 9771,
      "টিভি": 9772,
      "সকালবেলা": 9773,
      "##ধের": 9774,
      "##চারের": 9775,
      "বেশিরভাগ": 9776,
      "##্যান্ট": 9777,
      "কাদা": 9778,
      "##র্ষি": 9779,
      "রূপের": 9780,
      "ঘাড়ে": 9781,
      "থাকতেন": 9782,
      "গর্ভে": 9783,
      "##ীয": 9784,
      "##তুল": 9785,
      "##َع": 9786,
      "ইসহাক": 9787,
      "চাহি": 9788,
      "ঋগ্": 9789,
      "পলি": 9790,
      "৫০": 9791,
      "##দক্ষ": 9792,
      "##ঝে": 9793,
      "এসেছিলাম": 9794,
      "##হিণী": 9795,
      "##বেলার": 9796,
      "##ীনের": 9797,
      "##র্চা": 9798,
      "##িয়ায়": 9799,
      "করায়": 9800,
      "পাহাড়ে": 9801,
      "শ্বেত": 9802,
      "##াকু": 9803,
      "যাইবার": 9804,
      "গ্রন্থে": 9805,
      "বাজি": 9806,
      "বেহ": 9807,
      "##ক্রান্ত": 9808,
      "##সীর": 9809,
      "মন্ত্রটি": 9810,
      "চরিত্রের": 9811,
      "৪৫": 9812,
      "##দণ্ড": 9813,
      "ভাবিতে": 9814,
      "গালাগ": 9815,
      "##নঃ": 9816,
      "##বেশের": 9817,
      "##িতাম": 9818,
      "##দিনে": 9819,
[...]
